[PAD]
[UNK]
[CLS]
[SEP]
[MASK]
!
"
%
&
'
(
)
*
+
,
-
.
/
0
1
2
3
4
5
6
7
8
9
:
;
<
=
>
?
A
B
C
D
E
F
G
H
I
J
K
L
M
N
O
P
Q
R
S
T
U
V
W
X
Y
Z
[
]
`
a
b
c
d
e
f
g
h
i
j
k
l
m
n
o
p
q
r
s
t
u
v
w
x
y
z
~
·
Δ
‘
’
“
”
…
→
∼
ⓒ
─
■
▲
△
▶
▷
◀
◆
◇
○
★
☞
【
】
ㆍ
㈜
㎜
㎞
㎡
合
金
가
각
간
갈
감
갑
값
갔
강
갖
같
개
객
갤
거
걱
건
걷
걸
검
겁
것
게
겐
겠
겨
격
겪
견
결
겸
겹
겼
경
계
고
곡
곤
곧
골
곳
공
과
곽
관
괄
광
괴
굉
교
구
국
군
굳
굴
궁
권
귀
규
균
그
극
근
글
금
급
긍
기
긴
길
김
깊
까
깔
깝
깨
꺼
께
껴
꼬
꼭
꼼
꼽
꽃
꾸
꾼
꿈
꿔
뀌
끄
끈
끊
끌
끔
끝
끼
낄
낌
나
낙
난
날
남
납
났
낭
낮
내
낸
낼
냈
냉
냐
냥
너
널
넓
넘
넣
네
넥
넷
녀
녁
년
념
녕
노
녹
논
놀
농
높
놓
놨
뇌
뇨
누
눈
눔
눠
뉴
느
는
늘
능
늦
니
닉
닌
닐
님
닛
닝
다
닥
단
닫
달
닭
담
답
닷
당
대
더
덕
던
덜
덧
덩
데
덴
델
도
독
돈
돋
돌
돕
동
돼
됐
되
된
될
됨
됩
두
둔
둘
둥
뒀
뒤
뒷
듀
드
득
든
듣
들
듬
듭
듯
등
디
딜
딩
따
딱
딸
땅
때
떠
떤
떨
떻
떼
또
똑
뚜
뛰
뜨
뜻
띄
띠
라
락
란
랄
람
랍
랐
랑
래
랙
랜
램
랩
랫
략
량
러
럭
런
럴
럼
럽
렀
렇
레
렉
렌
려
력
련
렬
렴
렵
렸
령
례
로
록
론
롤
롬
롭
롯
롱
뢰
료
룡
루
룩
룬
룰
룸
룹
뤄
류
륙
률
르
른
를
름
릉
리
릭
린
릴
림
립
릿
링
마
막
만
많
말
맑
맛
망
맞
맡
매
맥
맨
맹
맺
머
먹
먼
멀
멈
메
멕
멘
멤
며
면
멸
명
몇
모
목
몬
몰
몸
못
몽
묘
무
묵
문
묻
물
뭐
뮤
므
미
믹
민
믿
밀
밍
및
밑
바
박
밖
반
받
발
밝
밟
밤
밥
방
밭
배
백
밴
밸
뱅
버
번
벌
범
법
벗
베
벤
벨
벼
벽
변
별
병
보
복
본
볼
봄
봇
봉
봐
봤
부
북
분
불
붕
붙
뷰
브
븐
블
비
빅
빈
빌
빗
빙
빚
빛
빠
빨
빼
뽑
뿌
뿐
쁘
쁜
사
삭
산
살
삶
삼
상
새
색
샌
샘
생
샤
서
석
선
설
섬
섭
섯
섰
성
세
센
셀
셈
셉
셋
셔
션
셜
셨
소
속
손
솔
송
쇄
쇠
쇼
수
숙
순
술
숨
숭
숲
쉬
쉽
슈
스
슨
슬
슴
습
슷
승
시
식
신
실
심
십
싱
싶
싸
싼
쌀
쌍
쌓
써
썼
쏘
쏟
쏠
쓰
쓴
쓸
씀
씨
씩
씬
아
악
안
앉
않
알
암
압
았
앙
앞
애
액
앤
앨
앱
앵
야
약
양
얘
어
억
언
얻
얼
엄
업
없
엇
었
에
엑
엔
엘
엠
여
역
연
열
염
엽
였
영
옆
예
옛
오
옥
온
올
옮
옵
옷
와
완
왔
왕
왜
외
왼
요
욕
용
우
욱
운
울
움
웃
웅
워
원
월
웠
웨
웰
웹
위
윈
유
육
윤
율
융
으
은
을
음
읍
응
의
이
익
인
일
읽
잃
임
입
잇
있
잉
자
작
잔
잖
잘
잠
잡
장
재
쟁
저
적
전
절
젊
점
접
정
제
젝
젠
젤
져
졌
조
족
존
졸
좀
좁
종
좋
좌
죄
죠
주
죽
준
줄
중
줘
줬
쥐
즈
즉
즌
즐
즘
증
지
직
진
질
짐
집
짓
징
짜
짝
짧
째
쪽
쯤
찌
찍
차
착
찬
찰
참
창
찾
채
책
챙
처
척
천
철
첨
첩
첫
청
체
쳐
쳤
초
촉
촌
촛
총
촬
최
추
축
춘
출
춤
충
춰
췄
취
츠
측
층
치
칙
친
칠
침
칩
칭
카
칸
칼
캐
캠
커
컨
컬
컴
컵
컷
컸
케
켓
켜
켰
코
콘
콜
콤
콩
쾌
쿄
쿠
쿨
큐
크
큰
클
큼
키
킨
킬
킹
타
탁
탄
탈
탐
탑
탓
탕
태
택
탠
터
턱
턴
털
텀
테
텍
텐
텔
템
토
톡
톤
톱
통
퇴
투
튜
트
특
튼
틀
티
틱
틴
틸
팀
팅
파
팎
판
팔
패
팩
팬
팽
퍼
펀
페
펜
펴
편
펼
평
폐
포
폭
폰
폴
폼
표
푸
풀
품
풍
퓨
프
픈
플
피
픽
핀
필
핑
하
학
한
할
함
합
핫
항
해
핵
했
행
향
허
헌
험
헤
헬
혀
혁
현
혈
혐
협
혔
형
혜
호
혹
혼
홀
홈
홍
화
확
환
활
황
회
획
횡
효
후
훈
훨
훼
휘
휴
흉
흐
흑
흔
흘
흡
흥
희
히
힌
힐
힘
聯
李
ｍ
##쉬
##먼
##6
##8
##0
##m
##에
##백
##9
##억
##천
##어
##치
##를
##1
##5
##㎞
##기
##이
##든
##원
##아
##동
##보
##호
##계
##제
##조
##업
##체
##서
##무
##경
##영
##일
##상
##수
##자
##로
##하
##라
##도
##다
##시
##피
##고
##입
##지
##난
##해
##한
##대
##출
##명
##내
##의
##식
##품
##약
##안
##전
##청
##주
##거
##역
##으
##세
##직
##쳐
##야
##함
##정
##부
##는
##현
##투
##반
##민
##엑
##스
##중
##소
##4
##면
##적
##몰
##롬
##박
##크
##만
##3
##춰
##절
##나
##념
##공
##장
##선
##캠
##프
##ㆍ
##코
##드
##국
##했
##진
##려
##니
##단
##능
##던
##져
##퍼
##와
##구
##처
##럼
##망
##르
##추
##모
##당
##폰
##래
##행
##협
##립
##학
##발
##위
##회
##간
##관
##옆
##토
##목
##은
##너
##솔
##루
##션
##향
##득
##귀
##신
##틱
##허
##가
##사
##본
##을
##김
##근
##차
##유
##리
##종
##합
##센
##터
##R
##T
##S
##v
##c
##찰
##들
##왔
##음
##─
##여
##G
##화
##칙
##과
##N
##애
##우
##성
##듀
##요
##2
##택
##양
##광
##특
##D
##I
##씨
##올
##강
##등
##외
##층
##었
##준
##인
##블
##방
##송
##분
##홀
##딩
##임
##바
##롱
##흥
##획
##마
##술
##님
##트
##포
##브
##랜
##까
##잉
##규
##권
##실
##비
##산
##법
##7
##석
##론
##타
##군
##용
##농
##저
##쿄
##놀
##엔
##교
##족
##승
##육
##울
##오
##케
##별
##개
##표
##할
##듯
##촌
##앙
##심
##곡
##슈
##빌
##파
##K
##C
##웰
##츠
##워
##연
##∼
##년
##침
##헬
##킹
##메
##디
##미
##섬
##u
##i
##e
##l
##숙
##람
##겠
##습
##달
##생
##험
##M
##A
##L
##배
##견
##렴
##움
##점
##첫
##작
##며
##총
##격
##렸
##번
##픈
##베
##통
##략
##환
##변
##월
##커
##뉴
##넷
##B
##쯤
##n
##h
##y
##예
##범
##및
##건
##운
##게
##형
##쇄
##료
##착
##얼
##즘
##팅
##온
##카
##읍
##희
##티
##그
##룹
##록
##링
##닝
##콜
##같
##압
##류
##딜
##러
##평
##철
##락
##복
##력
##엠
##객
##덕
##네
##폐
##병
##▶
##쟁
##물
##문
##페
##검
##색
##감
##급
##매
##레
##▲
##히
##밝
##혔
##F
##O
##초
##남
##팀
##a
##b
##암
##축
##였
##최
##헌
##램
##샤
##설
##령
##빙
##폭
##탄
##있
##랫
##골
##활
##태
##홍
##순
##델
##패
##맹
##윤
##접
##클
##럽
##담
##w
##s
##새
##닭
##금
##림
##텐
##휴
##키
##확
##필
##열
##셔
##널
##㎡
##왕
##H
##책
##덩
##흘
##템
##큐
##융
##노
##데
##칸
##즈
##훈
##련
##W
##o
##두
##윈
##똑
##증
##판
##더
##랑
##탁
##액
##삼
##p
##U
##재
##속
##P
##◇
##긴
##혈
##악
##잡
##란
##곳
##웠
##둔
##앱
##렉
##→
##률
##척
##춘
##채
##먹
##붕
##괴
##되
##랄
##뮤
##돼
##테
##논
##써
##겨
##큼
##칩
##머
##냐
##졸
##혁
##컴
##플
##언
##걸
##된
##것
##참
##찬
##집
##옥
##극
##른
##럭
##불
##묘
##ⓒ
##응
##뜨
##살
##떼
##냥
##막
##z
##따
##결
##창
##넣
##버
##릉
##턴
##탓
##r
##d
##돌
##텍
##낭
##굴
##뇌
##웨
##흡
##톡
##잘
##Y
##짜
##J
##독
##받
##쇠
##질
##염
##쓰
##알
##뿐
##효
##율
##씩
##글
##X
##측
##캐
##털
##x
##탕
##핑
##t
##g
##례
##린
##룸
##됐
##찌
##북
##밭
##될
##팬
##텔
##잠
##f
##죽
##탈
##죄
##날
##팩
##런
##때
##취
##녀
##틀
##릭
##쪽
##항
##줄
##젠
##뛰
##휘
##밀
##량
##났
##느
##꺼
##k
##셈
##펀
##혜
##핵
##존
##봄
##후
##벤
##손
##충
##각
##핀
##콘
##슬
##셋
##앤
##답
##갑
##편
##봉
##죠
##엽
##■
##좌
##겐
##튼
##셨
##누
##맥
##릿
##십
##콤
##혼
##촉
##젤
##롤
##킬
##엄
##꼬
##쿠
##았
##납
##렌
##말
##훼
##짝
##궁
##쌍
##벨
##헤
##칼
##E
##V
##욱
##갈
##둥
##놓
##친
##멘
##횡
##꾸
##엘
##익
##띠
##괄
##볼
##녹
##탑
##○
##갤
##좁
##황
##많
##짐
##랙
##뒤
##풍
##틴
##밸
##킨
##샘
##째
##렬
##틸
##얻
##㈜
##욕
##밥
##풀
##켓
##푸
##쇼
##완
##뢰
##끔
##△
##셀
##쿨
##벼
##릴
##잔
##좋
##럴
##룬
##★
##멤
##깨
##줘
##◆
##곤
##닉
##몸
##빈
##듬
##쥐
##폴
##름
##탐
##탠
##켜
##Q
##낙
##높
##낮
##잖
##꽃
##됩
##싱
##힌
##균
##눔
##길
##톤
##슴
##징
##섯
##떠
##돈
##흑
##벌
##콩
##팽
##픽
##컨
##렀
##빼
##켰
##퓨
##맡
##닷
##갔
##듭
##웅
##☞
##봇
##첨
##펴
##졌
##밍
##밴
##팔
##흐
##숭
##칭
##겼
##륙
##녕
##닛
##혹
##빚
##쓸
##튜
##앞
##빛
##겁
##믹
##롭
##읽
##봤
##떨
##뜻
##첩
##랩
##섭
##쌀
##ｍ
##떻
##므
##꿈
##엇
##낸
##몬
##큰
##펼
##겸
##께
##븐
##놨
##쏠
##젝
##쏘
##웃
##룡
##걱
##붙
##값
##훨
##씬
##톱
##밖
##쾌
##찍
##늘
##또
##▷
##갖
##즌
##룩
##뒷
##빠
##벽
##슨
##홈
##숲
##녁
##없
##닥
##뷰
##춤
##옛
##빅
##봐
##끼
##않
##맞
##쳤
##컵
##꼭
##랍
##넘
##깔
##뤄
##혀
##싶
##퇴
##냈
##땅
##옵
##맨
##롯
##넥
##셜
##폼
##얘
##묵
##샌
##빗
##빨
##닐
##밤
##몽
##됨
##끌
##힘
##꾼
##텀
##칠
##혐
##옷
##멕
##컬
##컷
##웹
##못
##펜
##둘
##멸
##룰
##찾
##셉
##즐
##q
##끈
##j
##랐
##끄
##냉
##뿌
##뚜
##곽
##밟
##뀌
##뇨
##덴
##섰
##덜
##닌
##젊
##싸
##Z
##㎜
##짓
##촛
##싼
##끝
##껴
##삭
##힐
##썼
##걷
##깊
##쁘
##넓
##렵
##흔
##앉
##긍
##낼
##앨
##렇
##뱅
##몇
##눈
##슷
##삶
##낌
##딸
##딱
##곧
##턱
##팎
##돕
##쌓
##끊
##촬
##줬
##늦
##뽑
##멀
##잇
##굳
##잃
##꿔
##뒀
##맛
##앵
##쁜
##듣
##맺
##흉
##벗
##멈
##왜
##◀
##좀
##깝
##겹
##씀
##왼
##쓴
##밑
##덧
##쉽
##즉
##눠
##떤
##꼼
##닫
##돋
##옮
##췄
##핫
##Δ
##맑
##쏟
##믿
##짧
##꼽
##뭐
##숨
##묻
##챙
##컸
##낄
##겪
##굉
##띄
##으로
##에서
##했다
있다
##니다
##00
##하는
##하고
##이다
##습니다
있는
지난
20
##한다
##까지
서울
것으로
##들이
##지만
기자
##부터
##라고
대한
##면서
##적인
##다는
한국
밝혔
##적으로
10
위해
##에는
##에게
밝혔다
##다고
201
##하기
말했다
통해
##었다
##억원
##장은
대해
##들의
이번
정부
미국
##하게
##들은
것이
##자는
##통령
대표
대통령
200
##된다
##됐다
관련
##위원
이라고
우리
지역
경우
중국
때문
관계
사업
이어
##장을
기업
가능
##라는
했다
##만원
##되는
19
##사를
11
12
함께
등을
이상
위한
##시스
지원
지난해
##으며
한다
##er
이날
문제
국내
##도록
##에도
##보다
따라
##입니다
투자
의원
##하다
진행
##000
##비스
현재
##았다
##장이
##하지
올해
##에서는
예정
최근
경제
##기업
##he
30
##기를
계획
##회의
하는
##성이
사람
국민
시장
##on
15
사진
아니
이후
##in
##졌다
##리는
##르면
##였다
세계
같은
일본
##대로
뉴시스
##되고
##뉴스
필요
특히
##했습니다
##들을
금융
것은
들어
##해야
경기
##하며
설명
사용
따르면
그러
##사업
##이나
후보
가장
북한
##서는
뉴스
##or
##시아
시작
삼성
상황
제공
##성을
개발
오후
##자가
##시장
##은행
##리를
증가
대상
##하면
##시간
이용
##하겠
교육
전문
##사는
##지는
연구
아이
##운데
##지를
것이다
경찰
운영
##력을
전망
결과
서비스
관계자는
기록
이라
가운데
the
모두
발표
##이고
나타
추진
##상을
오전
##는데
때문에
13
있어
상승
##했다고
프로
국가
다양
하고
##위원회
##es
판매
##사가
##하면서
있습니다
18
사회
##경제
##리고
그는
##정을
##an
##지고
25
기술
##en
##화를
제품
##스트
부산
조사
14
발생
생각
참여
이에
16
최고
##at
사실
다른
현대
연합
예상
확대
##기에
##부는
##명이
하지만
##들에게
열린
만들
##센터
등의
오는
다양한
규모
없다
인터
것을
최대
민주
전국
기준
17
있다고
기대
정도
확인
국회
마련
한편
국제
많은
평가
지금
된다
정치
##업체
분석
고객
자신
알려
정책
보고
50
##ar
검찰
##기가
내용
##자의
##ed
등이
100
이라며
##지역
수준
##원은
예정이다
그러나
정보
##랜드
##레이
연합뉴스
가격
##거나
##의를
추가
강조
지적
##학교
피해
하나
##0년
적극
이를
##세를
이런
거래
##마트
##수는
매출
##안을
##al
##로운
해외
24
대비
##기관
포함
결정
21
있도록
##사의
강화
##리가
##자를
없는
시간
##명을
##증권
##회를
있다는
산업
##MA
외국
하락
##치를
일부
전체
##달러
##산업
22
소비
##일까지
에서
##영상
아니라
##일부터
##이트
##가는
##연구
설명했다
생산
##나라
여러
##개월
판단
안전
성장
주장
문화
##기로
##에서도
장관
다음
##원을
않는
주요
##교육
##났다
경쟁
내년
##도를
이미
요구
개선
23
방문
지속
당시
##금을
오늘
##IL
기존
##인다
##ing
##원이
##들과
다시
##인이
##위를
##처럼
학생
있을
##으나
라고
현지
높은
##it
참석
##MAIL
공동
##분기
직접
실시
##리아
##동차
##식을
##겠다
대학
시민
공개
##라인
어려
여성
##그램
27
영업
영향
##이는
26
면서
##동을
각각
28
계획이다
이유
수출
모든
관심
구성
사건
##대표
EMAIL
##관리
in
앞으로
중심
주민
활용
##기술
우려
##도로
##기도
40
새로운
##ion
환경
지방
##주시
처음
##파트
##제로
LG
수도
##주의
적용
보도
##개발
늘어
동안
##장의
비롯
##기는
업체
상품
중요
##로벌
기간
##한다고
##했던
##했고
선거
29
등에
개인
##투자
선정
않고
그런
계속
개최
##데이
##그룹
분야
또한
##nd
게임
##시설
##로나
반영
##명의
##씨는
경영
##ou
출시
일반
대상으로
##원의
##인트
또는
##ic
해당
사이
혐의
유지
##om
중소
떨어
##19
위원
따른
공급
건설
글로벌
상태
##정부
많이
않은
##이지
대구
##전자
관리
모습
수익
##하기로
##이라고
##제를
##정보
확보
아시아
##이익
사고
##수가
특별
이뤄
##라도
정상
##사에
받아
##il
지난달
of
감소
미래
##으면
이는
코로나
업무
받고
##도가
##장에서
과정
##왔다
##단체
크게
##인은
스마트
효과
준비
앞서
##거래
##력이
프로그램
인천
##동안
보인다
##원에
만큼
to
##5년
##문화
학교
은행
##렸다
##통신
##st
청와
##자인
##수를
##8년
##하여
강조했다
##료를
시행
등으로
##이며
민주당
제주
의견
설치
청와대
##지원
##주는
됐다
##7년
건강
있었
있고
물론
제보
실적
방송
더욱
달러
##점을
코스
##이스
##합니다
신청
때문이다
으로
##시는
SK
전했다
있으며
##금융
##시키
전략
도입
아파트
성공
전문가
##시에
브랜드
##기자
발전
##장과
##2년
평균
역시
##대를
6월
방침
31
관광
3월
기관
책임
##20
주택
회사
##부분
부분
시스
가족
##자들이
##동산
##자로
##ent
##선을
집중
##사회
##해서
대통령은
자유
##가지
인터넷
##인을
인사
노동
##장에
의원은
##러스
##권을
##렇게
4월
중앙
목표
조성
논의
유럽
##6년
##정책
구조
##4년
대응
##원에서
영상
생활
나오
예산
고려
부담
정부가
##3년
자동차
기능
시스템
가능성이
도시
##사와
##환경
##서를
##한다는
찾아
##되지
##부가
보내
##지가
동영상
##이라는
9월
가치
60
차량
##부를
5월
##스크
##반기
상당
아직
만들어
##인의
1만
해결
##9년
참가
없이
선보
덧붙
##하겠다
통합
7월
받은
주식
행사
반면
수사
제기
구축
역할
##이었다
보다
의미
대표는
활동
##니까
광주
##50
##BS
어떤
협력
좋은
##조사
##원으로
##년간
비해
계약
##re
##드는
대부분
and
##이어
검토
##1년
##관계
부동산
지급
정부는
나타났다
자리
10월
전년
롯데
##70
온라인
##너지
이같
##는다
##도시
바로
보여
##민주
대형
본격
공공
12월
앵커
행정
자체
##별로
##가가
어린
언론
이동
의료
있지만
아닌
갖고
안정
수요
핵심
하루
8월
신규
향후
중소기업
##투데이
제시
합의
직원
##업을
##30
그리고
교수
##가를
보유
##00만원
만나
##억원을
않았
가입
##바일
##규모
##리당
##치는
1월
인정
돌아
분양
있었다
##진다
라는
국정
대통령이
##상이
코로나19
##건설
##가구
의혹
드러
보험
덧붙였다
알려졌다
##들도
방식
##전을
##하려
이와
##이터
##본부
##서비스
관련해
원내
##기간
머니
않을
##도는
##리스
우선
##과의
##보험
정부의
##주택
차지
##연합
##움을
않았다
##품을
##is
자신의
전달
개정
논란
##분의
어떻
비판
##했으며
##물을
모델
모바일
외교
강원
##했지만
재판
##ec
기다
마음
##로부터
넘어
만에
##의회
높아
노력
##et
서울시
##자들의
##르는
공식
##회사
종합
2월
이야
업계
11월
그동안
방법
지지
머니투데이
##as
1년
각종
대전
02
스타
인수
##el
오른
##스는
##협회
##자리
보면
##감을
##이었
##일리
선택
##21
최초
어떻게
대출
되는
수입
##국의
고용
사무
대책
우수
것이라고
##전히
이전
##디어
중심으로
##율이
##지에
주변
증권
70
남북
불법
인터뷰
이하
199
다만
라며
기념
##문을
##세가
영화
신고
기반
##공사
것도
구매
전환
##라이
외국인
조직
대선
반대
3일
##세대
##ig
전날
확산
설립
KT
회장
민간
문제가
##계획
##위는
필요한
##카드
제작
나온
5일
##벤트
그래
중인
전시
##회담
위험
체결
##되면서
경기도
혁신
변화
위치
##어나
제조
TV
주목
제출
아니다
##했다는
활성
기획
##TV
교통
경남
##겠습니다
요청
기본
발견
##텐츠
우리나라
종목
대해서는
사망
영향을
최종
##밖에
울산
성과
어린이
이해
##중한
##하도록
공연
나서
한다는
회의
공감
##이션
지적했다
1일
통신
바이
##나라당
##럼프
조선
뉴스1
대통령의
시설
공정
이벤트
서비스를
새누
74
##비를
##대에
##선거
##계를
##소를
인도
10일
회복
전해
이제
치료
##되면
##id
##성과
비용
##인데
비교
통한
처리
인근
사랑
20일
##대회
##ro
트럼프
##경찰
한나라당
##복지
결국
제외
IT
감염
새누리당
##장으로
구속
과정에서
보호
전자
자금
##두고
##량을
##프트
장기
지정
기록했다
##업계
이들
##스를
포인트
##없이
러시아
신용
조정
혐의로
어렵
##이라
##냈다
독자
미국의
##씨가
##지방
##무원
연결
##보고
##차를
유통
##대책
이달
##10
##청은
사례
있게
자연
과거
재정
있는데
##명으로
받을
##대가
##00만
##시스템
하지
올라
실제
소개
##도의
중단
##립니다
##마다
4일
홈페
##근혜
영국
##안전
화제
##과학
이름
##불어
##율은
내려
현지시간
15일
##약을
홍보
국방
이사
제한
7일
거쳐
##자들은
##학생
방안
80
##하거나
진출
먼저
##재인
35
주장했다
경험
더불어
##부에
##위에
인상
여행
원내대표
9일
##자와
##지로
##중앙
지하
##관은
##액은
##하다는
##량이
27일
##대의
##평가
14일
##ation
부문
받았다
영업이익
12일
사전
현장
##바이
경찰은
않아
작년
2일
8일
매우
뉴욕
인해
##리에
11일
지도
사태
가능성
대변
##느냐
##대학
지분
이렇게
스마트폰
구체
강남
16일
##지털
##ea
23일
발언
규제
희망
##쳤다
입장
28일
13일
25일
출신
역할을
24일
##운동
전망이다
18일
26일
국무
30일
22일
확정
비롯해
부족
17일
##케팅
매수
##th
##소년
박근혜
입장을
대신
중이다
##되어
##섰다
6일
21일
19일
##실을
##지도
등록
줄어
##생활
독일
##데일리
문제를
영상을
체험
일정
김정
최소
##00여
장애
위반
할인
##ol
규모의
어느
##부의
휴대
##사로
##스타
씨는
##사에서
th
##겠다는
가까
##서도
##신문
##억원으로
내놓
밝혔습니다
지나
이라는
전남
전기
항공
보이고
분위
##회가
국민의
국회의
것이라는
비중
있기
##하겠습니다
두고
소속
##스로
##이기
프랑
없어
3년
파악
관한
측은
경북
##움이
##조정
자산
점을
그렇
소비자
디자인
감사
##치고
확진
##회에서
2년
조치
29일
변호
해야
불가
앞두고
##다가
방향
##언론
##머니
문재인
근로
담당
##위가
##거리
소중한
이들은
##음을
##세계
사업을
불구
수상
##항공
움직
대한민
##키로
##르고
방안을
##있는
광고
주가
##더라도
단체
##소득
디지털
1천
바람
##발전
방침이다
##병원
36
##행을
##가격
공시
##임을
##포츠
과학
촉구
##ur
나라
제1
청년
예방
너무
##화가
불과
그룹
콘텐츠
##들에
공간
전통
중요한
##사고
##스코
이데일리
2차
채권
이상의
제대로
##자금
통과
##하던
##당은
무엇
##화에
##이가
##제품
않는다
내부
##율을
카드
##지지
무료
창업
않다
##전문
상대
##상에
홈페이지
##률이
정확
도로
##도체
##에선
##방송
삼성전자
사회적
##지면서
소재
##BC
##단은
전용
##건을
반응
##회견
32
회원
등은
보였다
##당이
##활동
올랐
##단을
##됐습니다
##000만원
에너지
유치
강력
##명은
연속
33
북한의
여러분의
##개의
##르게
세종
##하자
근무
##회는
##젝트
##나는
데이터
##ts
##롭게
최저
어려운
##되며
동시에
##워크
##자산
달리
교수는
애플
열고
##기의
맞아
##식이
보건
투입
소득
가능한
##리지
삼성전
##관광
1조
##플레이
평화
마케팅
##장관
##등학교
자료
이러
매각
작품
부정
노조
공격
##한국
충분
상장
##학과
당선
가능하다
수도권
채용
투표
##무리
제안
45
프리
한다고
제보를
##대는
금리
혜택
##으로써
##하다고
관심을
##하기도
비롯한
지금까지
내용을
##와의
##지구
기자회견
##경영
추정
##ay
여전히
예상된다
##포인트
##이드
for
기초
##점이
202
의견을
역사
펀드
취업
##보는
34
언급
가지
프랑스
인한
공모
##le
회장은
목소
##구조
그런데
##상품
나가
단계
받는
국토
되고
표현
얼마
##제가
이른
##성장
만든
점검
마지
##시켜
##부와
기다립니다
누구
##이자
##국은
질문
사람이
판단되는
2012년
##대비
마이
정도로
##상의
##으로는
무역
##주시면
같이
제도
##주가
2만
##iv
건물
##기준
##률을
조금
##실에서
제2
순매
##의도
하면
##받습니다
##펀드
아울
가정
뉴시스가
##하는데
가치나
사진영상
여론
보내주시면
작업
공감언론
반영하겠습니다
화제성이
사진영상부
제보받습니다
##이지만
##니스
##인지
##화된
이번에
프로젝트
국립
선물
##이를
받았
##화점
마지막
협의
검찰은
##ac
마감
같다
모습을
주도
못한
청소년
총리
규정
##수의
##자에
유명
가진
아시아경제
형태
##스가
##80
##일을
com
음악
##자에게
시험
복지
##40
##안에
##텔레
##구를
장관은
##로는
남성
2010년
721
대규모
##인으로
##보다는
##노동
현실
처음으로
신뢰
업종
발행
##증을
##일보
##주를
하이
##간의
동아
##하겠다는
##스터
개혁
변경
여야
증시
2015년
7470
이러한
##협력
이루
##관을
선고
##억달러
현대차
매년
##단지
바탕
계열
코스닥
##ir
##대학교
연간
아울러
##졌습니다
밝혀
일자리
##연구소
##교통
이같은
합니다
발표했다
##회에
나선
##프라
##었던
##만에
##단계
##히려
열리는
##트워크
대한민국
호텔
##안이
##대한
상황에서
90
배우
##억원의
긴급
##ut
운동
##림픽
뛰어
사실상
##하지만
하반기
대기업
대체
##성에
상반기
##관에서
##세로
##am
##igh
##기와
##게임
달라
있던
##텔레콤
필요하다
번째
##ww
활성화
##공항
2008년
충남
보도했다
집계
놓고
##주년
오히려
수행
##부문
이란
한반
on
연구원은
통일
전북
낮은
##세요
##당의
정보를
38
기준으로
관심이
소방
##명에
공유
##진을
##린다
##24
이끌
2014년
##디오
##률은
금지
이명
기여
못하고
1000
##원과
비슷
##스의
의원이
사장
##과정
##60
##도에
공무원
일이
www
##씨의
2013년
이익
여름
임대
진단
2011년
##기구
심각
이같이
대우
감안
사실을
열어
수석
외환
##결과
##관이
##스럽
##TA
##식품
여의도
##만큼
##대상
##em
토론
사상
추천
대법
통화
모집
##국이
긍정
##갔다
반도체
##마을
알고
이유로
거의
한미
##레스
##었습니다
보수
주는
##법을
검사
비상
그의
그래서
##공업
창출
특정
지켜
정신
시각
##번째
##됩니다
39
기소
차례
음식
##리기
##보호
출발
지속적으로
그대로
##공단
The
37
총선
##감이
했습니다
##코리아
##정치
##점에서
3개
마을
위해서는
##ers
판결
기업의
55
예비
##재단
정기
중국의
쉽게
결과를
상대로
소송
충북
코스피
##다면
가지고
5년
살아
북한이
바탕으로
##op
##했으나
발생한
##대출
실제로
##금은
범죄
재무
1차
감독
고민
연계
선언
##했을
갈등
##웨어
##격을
차별
제품을
불안
둘러
##제도
부회
2009년
##자동차
자본
한국의
해소
서로
라이
아침
10년
##통합
베이
약속
많다
입주
전화
특징
##사일
500
198
##이버
##금이
##랫폼
##스러
지원을
유엔
##량은
##차례
스스로
000
건축
##위로
##수록
##물이
발표한
##역을
출연
##금리
보장
없다는
벌어
구입
##지의
##전략
##구가
내일
##인과
정권
도움이
고위
잘못
##정이
CE
반발
##가고
##하겠다고
##위의
##심을
그것
AI
##으로부터
대화
사장은
협상
법무
##트남
나왔다
우리가
세월
어제
마무리
Kor
의무
집행
##자치
자세
대북
##어요
인하
걸쳐
꾸준
필요가
접근
다음달
수밖에
까지
홍콩
우리는
상담
특수
정당
##재를
2016년
최초로
달성
##im
전면
##루션
##프로
행복
활동을
전반
넘는
##ill
##민주당
증가한
포함한
##측은
2000
##됐다고
혐의를
이재
측면
##개를
##요일
군사
아무
씨가
얘기
##직원
##하이
##un
자동
##학년
대표가
돈을
##겠다고
왔다
##지수
재산
특허
예술
참석한
자녀
사람들이
당부
부모
밝히
이명박
PC
##투자증권
##하우
52
##조합
##ew
##위원장
당초
##었고
베트남
##리카
수술
이용해
##ow
##ch
##자원
신한
설계
##고를
##등급
김영
수원
##ce
48
자기
##드시
##시장에서
효율
##ot
오픈
완화
거부
식품
42
##들어
접수
1억
젊은
##받은
##란다
연말
출마
원칙
단순
##분을
후보는
##가의
2007년
##항을
다소
##ly
43
관광객
따라서
##진흥
스포츠
31일
작은
##──
##감독
##차가
시장의
00
응답
가량
법률
전쟁
나섰다
4분기
##개혁
늘어난
##산물
65
안보
##시키는
등장
##테크
졸업
해양
##오는
외부
주제로
2017년
수는
49
##CD
없었다
##연구원
나는
임시
##us
##수수
출범
##가족
의해
것과
불구하고
절반
배치
맞춰
보안
잇따
화장
##ter
##주고
44
시장에서
취임
전혀
##국제
9시
편의
##만의
인식
소통
1인
##는지
선진
##주로
10시
작성
플랫폼
##분야
좋아
반드시
##은행은
##쇼핑
##내는
말씀
되면
것에
##자체
##서울
상황을
##트를
##내고
공사
이야기
41
##속도로
st
조합
##리의
독립
살펴
##제는
바다
##법인
안에
주로
완료
해도
문제는
주문
5개
스트
일단
##액이
주말
46
CJ
##운용
밝힌
말을
등에서
매매
것입니다
프리미
##이사
결혼
힘을
국회에서
위협
##비용
불편
나머
겨울
대중
##리스트
영어
주거
인권
##후보
선수
시도
47
아래
##회의에서
##소에
강한
##공원
선발
가져
기술을
실질
##적을
분명
나온다
##ad
##만을
is
점에서
조사를
##000원
우려가
##는데요
추가로
##나고
75
가구
부과
쇼핑
##적이
증가했다
51
내린
##NS
대해서도
남아
많아
주력
논란이
발굴
철저
시장에
제공한다
##길을
##지와
근거
제공하는
##시험
인기
##시가
시간이
그러면서
##므로
신문
회담
행사를
운용
##해를
4개
못했다
3만
전에
6개월
##어야
진입
대변인은
##였던
신설
허용
사과
작용
##표를
##사인
##연금
방식으로
이다
##ul
##니아
##호텔
##퓨터
소식
그렇게
기능을
##명과
그림
##리한
내다
##으면서
##받고
친환경
나갈
##페인
얼굴
환자
아프
품질
##비가
##os
초청
##드를
##만원을
세월호
##전에
해석
##인가
바란다
지상
청구
##소가
연장
##규직
나오고
관계자
효과를
2천
##11
보는
화재
이탈
병원
인력
시장은
조기
##의원
때는
##단이
촬영
경찰에
현금
##예술
##준다
아동
내가
##선이
친구
명의
##시를
한반도
##군은
일을
여기에
이곳
여기
##전화
지역의
의사
헌법
등도
끌어
더불어민주당
##구역
##려는
정의
관측
거주
##무를
##액을
##계약
수용
시는
네트워크
프리미엄
##체육
##대에서
여부를
올랐다
해서
비난
##치가
급등
높다
59
자율
SK텔레콤
##메라
없을
피해를
부인
##정한
##일이
이틀
지자체
시간을
대폭
아니냐
동반
운전
단지
전해졌다
300
기아
거듭
상황이
##당을
수수
돌파
어디
##체를
##신을
펼쳐
##회의를
##000억원
CEO
##로를
##건이
EU
53
##소는
##부모
1분기
##하려는
언제
##시킨
##서관
사이트
한번
##ver
제3
##경을
알아
##적이고
처벌
나와
훈련
존재
시청
육성
피부
##약품
##ith
##로서
##봤다
선임
직장
페이스
앞에서
보이
##함으로써
##진이
##상황
인공
상임
소유
흐름
테러
단기
##조를
##상은
##활동을
54
전망했다
경우가
주고
새로
##였습니다
패션
위치한
##종합
##est
##제한
형성
##사무
적극적으로
##시켰
급증
전일
##파크
한화
2006년
##플러스
##있다
##씨를
##점으로
개편
이내
일으
##협의회
직후
##함을
##ED
앞으로도
증거
쏟아
##해양
등과
만족
##0년대
##하라
기부
신속
신종
정상회담
포함해
일본의
2018년
##국민
##수익
관련된
기온
악화
##인터
매입
##카오
구체적인
브라
공천
서울대
시장을
시작했다
##위원회는
맞는
유일
##안은
연기
##총리
56
정확한
분석했다
실패
집단
2005년
케이
부품
##분이
##포트
##뮤니
명예
##만달러
생각한다
관람
##시킬
효과가
중구
축소
부사
셈이다
##ess
채널
지식
주최
명이
상위
##수사
150
기상
##조원
원하는
##중인
미세
##화학
##라면
지키
하기
##건축
시절
아름
좋다
정치적
##스토
##인들이
##25
kr
없다고
##되기
##권의
##스플레이
##지수는
##건으로
##사업을
수가
##정에
인구
실무
시작으로
##소에서
위해서
##생산
##형을
##서에
임명
이것
만드는
##리로
프로그램을
##조선
##무역
답변
전문가들은
##에만
KBS
매일
떨어진
자신이
노무
취재
시장이
책임을
하는데
네이버
##케이션
조치를
FTA
징역
극복
##15
타고
##계가
##상공
부장
가격이
##00원
후보가
##티브
##면을
be
비가
공시했다
##받아
##피스
##만이
상호
취득
상대적으로
즐길
인증
솔루션
##에게는
부여
농업
위원장은
##겼다
##개국
매도
포스코
확인할
##제에
최고의
전주
나머지
국내외
기업이
관련한
아버
57
차원에서
##단의
유로
새벽
2분기
지구
안내
성과를
85
메시
##분께
골프
심사
보이는
##중공업
##처리
사람은
##지법
##했는데
했다고
##전이
경고
북미
바이오
사라
구글
휴대폰
##수도
##버스
진술
##해도
기자회견을
실시간
##지검
맞춤
가능성을
혜택을
최고위원
##별로는
##um
갤럭
전력
수준으로
하며
with
꾸준히
위기
기회를
수주
##판매
변동
##시민
본격적인
형사
##수로
##점에
위안
소프트
3분기
##바마
##km
공직
##려고
석유
에어
얼마나
장애인
동일
실현
자유한국
58
##다운
힘들
동해
수립
03
환율
시가
##트로
선박
법인
주차
이용할
제재
늘었다
##력과
##성은
초기
##리핑
##90
동원
되지
말했습니다
사용할
주관
자원
페이스북
갤럭시
##들로
취소
원을
as
보통
##류를
##정상
비즈
현행
겁니다
들어가
적발
들여
오바마
KB
##군의
장비
종로
단속
구성된
새롭게
##파원
3개월
어려움을
##우는
##과는
##리즈
임금
동기
영역
##ap
정말
자격
그린
실천
##도와
압박
행동
구간
##에서의
담은
##까지는
뜻을
합병
부진
##었다고
제가
사실이
##크로
노인
개별
AP
##웠다
고급
향상
김정은
평가를
주의
컴퓨터
간담
##시장의
##장애
64
불러
나누
인기를
방문해
##보를
도착
##론을
봉사
##지사
공장
정리
접촉
##됐고
국회의원
강력한
##호를
1위
예측
채택
GS
##기획
회장이
이른바
청약
63
##어를
##스러운
가동
계획을
##우고
미디어
##기지
##위기
완성
정비
정책을
거리
발사
이처럼
##ear
부실
##ag
사퇴
##라우
##라마
낮아
이슈
##으로서
4년
충분히
##평균
유동
밖에
센터
없고
대학생
197
##질을
대통령과
##받는
차단
##보면
05
유입
자리를
하다
춘천
사는
##점은
##돼야
##기고
생태
##제의
re
that
배출
##IS
인프라
개방
빠른
찾는
후원
태양
##00억원
2시
2014
가격은
의심
올해는
마찬
검색
나눠
##ist
모아
##면적
동의
##수석
사법
총재
시작한
갖추
학습
갖춘
##먼트
보니
김종
##만으로
평소
pro
비슷한
가는
##화와
##이에
##ect
##으니
확장
##청이
##스와
##됐던
##해온
계기로
지역에
##운영
월드
##가로
되어
IC
##행정
##부터는
##적이다
##경쟁
##TN
SNS
##권이
재개
강제
##없는
##아가
##향을
공공기관
con
##공간
2004년
##건의
교체
인간
기억
##공동
마찬가지
지하철
않도록
제외한
블랙
노력을
훨씬
줄어들
##목을
크다
##백화점
운영하는
IP
진행한다
빠르게
상무
기울
못하는
유출
##기능
양국
##여명이
총리는
##권에
취약
##관련
커피
##경기
이행
미사일
속에
벤처
서초
##다른
##검사
##oc
##분간
##싱턴
진행된다
상태다
적절
창원
자세한
등이다
추세
복합
##한다면
##리트
오르
느끼
받지
탑재
노무현
폭발
자주
at
주가가
##대와
##상으로
##12
고발
왼쪽
##겠지만
곳곳
##종의
84
배경
경쟁력
것처럼
##자들에게
선호
검증
##차는
베이징
##모델
저녁
레이
##생을
적극적인
##봉사
##동의
달하는
풀이
표준
##만5
추석
도전
##사들이
오래
내고
개입
건립
도움을
바른
##이면
않으면
##효과
마스크
카메라
상황이다
원자
하나로
##어도
##리오
##노조
있지
폐지
시범
계약을
방역
##증권은
보조
연방
##기기
적이
카카오
농협
거론
강원도
아마
저렴
사항
##비아
##and
천안
주주
당부했다
바뀌
다르
인물
빠져
이라크
##ment
시스템을
일어
학부모
단독
서민
##ong
##혁신
##특별
##해왔다
##중에
##보가
반응을
In
내용의
하면서
##훈련
서울중앙
수요가
이외
지시
##나무
가까이
목표로
##TE
바꾸
개발한
##산을
벗어나
##군이
열린다
높이
신임
불가피
이야기를
합동
##해진
an
##가스
과정을
초과
특검
체계
고양
##DP
##뿐만
속에서
대해서
최선을
요즘
우리의
11시
개설
##이어서
청주
대표적인
##자들을
##구는
##소프트
결의
##웨이
미리
##호선
##수요
2018
눈에
나왔
부처
##ll
있었던
특파원
점유
하락한
대기
포항
3천
Korea
미국과
유도
##조사를
지원하는
이유는
김성
##기금
어렵다
리더
##스티
저는
##받을
워싱턴
다가
66
운행
##ity
쉽지
위원장
첨단
##이즈
##ial
##철수
수사를
포기
활용해
##았던
파이
호소
##릭터
A씨는
보입니다
##공개
요금
##범죄
야당
##ain
단일
커뮤니
뿐만
##이너
동물
결제
##ies
2개
##리와
중요하다
동부
출석
문을
의한
의결
이로
투자를
성폭
상품을
##체가
가계
이중
했지만
co
본다
MBC
##시키고
중간
##됐으며
자리에서
##거운
미세먼
도쿄
대회
통계
노래
##의료
매출액
##선에
##설팅
설명이다
##비는
회계
사이에
이어질
##려면
비즈니스
수정
가까운
기자가
재미
##당한
강릉
##어서
남편
##직을
62
정부와
걱정
##ct
태풍
메르
권한
이루어
##니터
95
활발
6시
임직원
지배
파트
연출
이정
4대
신경
##치지
##명한
성능
2003년
wh
캐릭터
유가
##영업
##드로
기대된다
##ve
법정
##200
가을
아주
6개
화학
##아이
급락
주인
심각한
확실
2020년
설정
미국이
철도
대만
머물
##식으로
내다봤다
제거
느낌
표시
##선의
수준의
최우
불가능
새정치
의혹을
##보증
문의
무선
##지면
수급
##질이
해상
이용한
NH
질병
안팎
##등록
버스
있으나
##시티
##조차
부채
통상
점차
보상
내용이
누구나
원내대표는
중에
자료를
곳이
체포
##었지만
모양
##청에
조사됐다
집계됐다
61
67
##자기
##임금
상승한
국세
나설
자랑
노출
##은행이
기사
지역에서
그가
##량의
##은행의
노사
sa
호주
시내
지속적인
이라면서
##ight
지금은
##주민
호남
##함에
보인
##ate
##ld
교과
##주일
미술
가능성도
아이폰
보유한
내에
절차
이탈리아
120
양성
전개
움직임
소프트웨어
방지
##수산
로봇
기획재
res
금감
파견
치열
비서
자치
##연을
##습니까
##가에
##문이
출입
씨의
##질환
이르
알려진
바라
##용차
받아들
사업에
누적
비행
##부장
들고
##art
남부
공항
##사이트
말이
추진하고
고려해
늘고
##스럽게
장관이
내수
사건을
##의견
##지에서
빨리
대로
기대한다
질문에
##았고
30분
상승했다
어머니
##바이러스
것이란
비판했다
##ak
##달라
인재
68
YTN
이들이
현황
평가했다
##아야
2002년
나올
착수
##동에
##사항
99
반복
전세계
##당에서
##법에
손해
최대한
##rom
음성
##방을
시사
##장비
슈퍼
필수
유사
7시
##치료
전투
##체계
있어서
눈길을
##문제
풍부
개성
현재까지
##국에
옮겨
내세
##시장이
##시의
04
성남
##가능
##실이
06
규모로
주재
이름을
금융감독
IS
##센터에서
작업을
바이러스
검찰이
##erv
이미지
나오는
##세포
리포트
일제
제공하고
경쟁력을
브리핑
##팀은
트위
카페
##미디어
완전히
순간
01
수치
안철수
기타
고통
시대
김현
겪고
재판부는
참석해
선출
협약
경찰이
##전거
##oo
분류
결합
##올림픽
개막
서해
싱가
2015
기존의
내용은
분야에서
문제에
이상이
재난
72
##주주
도심
소환
대책을
승인
##했기
광역
##운드
##청장
하락했다
임원
폐쇄
##개선
자유한국당
부담을
상징
가맹
용산
##포르
평창
상향
제약
##유의
진행하고
##널리스트
보완
오피스
##인들의
##pp
##주기
타이
올림픽
메이
##시장에
시즌
##ail
회장의
##업에
맞춤형
구현
##판을
역대
동양
제일
업무를
##에너지
일자
##리며
아이디어
순매수
ex
조달
소형
5천
##력은
##만9
2000년
실험
##영화
2016
비중이
손을
삼성전자는
들어간
##구의
##세에
통보
##종목
##럴드
배당
기반으로
충돌
드러났다
서울신문
##만명
입찰
##분양
법안
이웃
내달
##추진
##식에
##억원에
희생
73
엄마
##서가
기회
한겨
재건축
##이던
물류
이벤트를
했던
##니어
모니터
##대문
테마
크리스
최소화
선도
말한다
끌고
마음을
2조
##000여
전세
나타냈다
반등
##분에
분위기
우수한
무엇보다
##건에
매출이
점이
실종
CBS
##생명
가로
절대
생명
씨를
규모가
##구에
##국가
대처
당장
LG전
##나다
코리아
해운
물가
매장
20대
만들기
진보
##지능
잇따라
비정
현장에서
##리어
파트너
지연
상당히
활용한
비핵
부상
변호사
69
공약
분리
##케이
교류
토지
연휴
77
모색
의원의
##CC
##인터넷
시작된
or
##멘트
당연
만난
사용하는
도내
스토
그리스
##13
경상
##소로
##화로
##ab
촉구했다
##상태
질환
벌이고
경선
적은
조작
##시장은
##노총
치료를
백화점
##정의
##마켓
탄핵
기자입니다
못해
싶은
##18
차세대
제휴
나타나
##업체인
196
품목
##ive
앞둔
##건강
총괄
##RL
아이템
3시
특별한
트위터
합리
조언
##체험
##유가
작가
가치를
8시
보유하고
많았다
헤럴드
참여한
하겠다
결과가
##14
배제
제공할
시기
10여
외에
무료로
##히는
이상을
용인
내리
합격
지수
##미나
##주에
거래를
##계의
차이가
수능
애널리스트
실업
보급
##지게
##하고자
절차를
Ch
상황에
검찰에
##지기
한겨레
가슴
##안보
이스
제조업
재배
드라마
등급
교육을
넘게
영향으로
참여하는
의지를
지방선거
##작용
##성의
선생
고령
만약
나타났
공동으로
심의
CC
76
##투표
말까지
구조조정
입법
여자
##준비
##심의
##심사
비대
하게
##아파트
said
##ort
소폭
교사
##ang
보증
##정은
됩니다
##로드
##사진
경우에는
과도
##DI
##책을
게시
2배
##만한
##16
##국을
평양
고교
뮤지
화장품
##고기
##이었던
##령을
신세계
##아요
유리
국채
##타운
급격
##시켰다
증정
2억
싱가포르
##타임
여부
##력의
일대
토대로
사이버
경제적
##물관
이들의
기록한
감소했다
중심의
대외
목적
중동
알려져
아베
수준을
스타일
외에도
법적
##위원회가
2017
이끌어
이종
피해자
동남
피해가
초대
따뜻
자체가
##적으로는
세계적인
하늘
세부
##스에
##통상
##주년을
##행사
강하게
허위
모여
예고
##하나
끝에
저희
공략
##세는
##트는
세금
위축
전월
모르
##상승
시리즈
참고
##해주
##되었다
입학
##실에
확충
일각
학생들이
사진을
예약
##ews
차지했다
김대
절감
만기
실시한
내에서
정보통신
늘어나
##혔다
##어진
동아일보
즉각
임상
##월드
누리
IM
줄어든
미국은
##거든
사무총
5G
##망을
공무
08
##OU
##17
##조직
시위
대리
당분간
##위원회를
농촌
철강
생존
한정
연락
##았습니다
1위를
필리
##마이
##란드
##주식
데다
78
제주도
창조
연구개발
##포럼
초반
저축
통제
무기
##신이
중국이
오랜
##IC
##였고
운영하고
##설을
##까요
##자료
##네시아
##매매
때까지
싶다
##ia
원유
김태
전날보다
##단에
##라우드
산하
결정을
유기
수십
북한은
내렸다
실적을
##든지
##하였다
##라스
##레이드
상생
녹색
교환
##면에
5시
최신
##예산
발급
##공장
김경
5만
개통
행사는
##확실
플레이
진행된
기계
##보건
##상담
사고가
##소비
##하면서도
##화의
바닥
제품은
3D
블루
마친
리스크
여수
##파이
본격적으로
무려
충청
##처를
장학
##화는
종로구
##담당
받게
커지고
권고
자사
관세
직업
##토록
둘러싼
원전
07
축제
중부
규모는
##그룹은
수수료
##마저
하나의
향해
변화를
막기
##션을
회의를
by
형태로
##위에서
성장을
##조치
##테인
아니냐는
개념
한국경제
승객
##ee
사우
2019년
일어나
1명
두산
인용
불확실
tr
받는다
종교
##액의
LCD
##사관
##스에서
퇴직
일시
##if
공화
차관
침체
특징이다
##번호
88
다이
부담이
트렌
점도
심리
적합
자회사
돌려
목소리를
브라질
자전거
##조건
##피해
##바로
점포
저지
구제
URL
##소의
시상
##실험
LG전자
실내
##권은
##mm
##고가
일상
종료
확인됐다
##종을
##중이다
09
이래
##PC
3차
##MC
충격
초등학교
찾은
##고요
from
##계층
힘입
##씨와
##거든요
##데이터
지방자치
대법원
할머니
##ast
직무
비정규직
아름다운
##기념
앞에
인도네시아
##트리
대거
근본
동참
진료
##신청
상한
기업들이
##드러
##랐다
김동
##더니
협조
##터리
상승세를
민족
##여행
스위
캐나다
수익을
##회장
듣고
##연대
굉장
다니
불리는
길을
글을
의장
##기온
##받았다
##전한
##사태
##자들
20여
침해
수준이다
적지
##나가
금호
##진은
디스플레이
무상
한강
계좌
안정적인
올려
훼손
지적이
라인
마치
주한
대표의
##측이
당일
사업은
##ean
만한
마감했다
생각을
마쳤다
##해주는
##베이
##개로
4차
이르는
아프리카
미래에
도와
##됐다는
##제약
4만
##전쟁
기대하고
##oun
가상
찬성
투명
##학을
2019
과학기술
제시했다
가스
##28
줄었다
곳은
전망된다
비밀
메뉴
당첨
##재판
10만
화물
보건복지
##뉴스24
추진할
##닷컴
미만
##철도
발생할
명확
준공
어려워
시중
지수는
79
##석을
##티즌
##000만
지휘
이밖에
답했다
당국
지표
##선물
##이란
공부
있다면
##화문
##었다는
회사는
발생하는
##수준
##리티
지난주
택시
IB
##력에
단말
##된다고
한달
##서의
흔들
전략을
노후
1층
상업
간의
##행위
##아시아
##소송
##보니
한일
실적이
##안의
##프로그램
국방부
##30분
진정
감소한
##각을
정착
획득
##어가
##OS
##용품
대부분의
제정
10개
폐기
4시
대한항공
다운
지출
분기
아이뉴스24
1인당
##평양
갑자기
##기업의
유력
인공지능
일환
청문
패키
차지하는
아내
길이
중국은
##회와
경계
미치는
편집
풀이된다
연령
국내에서
분야의
떠나
##위원장은
있는지
생각이
##27
코로나바이러스
요구했다
나눔
##26
산림
건조
##만원으로
커뮤니티
##됐지만
의견이
구속영
이승
##지자
##────
##명에게
문제로
##기록
설문
차기
##자유
2001년
MS
83
부당
국정원
##수수색
##법이
굉장히
힘입어
##교육청
부각
##본부는
참석했다
##전환
헤럴드경제
##지주
불이
금융기관
모임
캠프
압수수색
경험을
##짜리
나섰
보관
기획재정부
최적
이동통신
직전
##ark
돌입
네티즌
7개
준다
컨설팅
폭행
세무
추구
##업이
sh
영양
##식에서
내정
계산
##ob
착용
당기
사람의
3대
요구하는
수시
혹은
조만
늘어날
복귀
관계를
##23
##억5
높여
설비
대표이사
바꿔
##세기
남자
이어지고
원인
축구
이자
##물질
증권사
per
건의
##렸습니다
말고
##회복
휴대전화
필리핀
접속
##대화
##놓고
86
예산을
기회가
있어야
범행
##버그
민생
##비율
편리
신입
1시
체육
상당의
보기
자금을
조만간
##라엘
나무
만들고
창의
김진
##음에도
테스트
발생했다
아르
##리드
남은
계열사
무게
의미를
한은
분쟁
##시와
뮤지컬
당사
제목
##일은
강경
##점검
##협정
##ust
의미가
고성
##억원이
##공급
##ip
분명히
will
겨냥
총장
##리케이션
상당한
강남구
##our
정도의
정체
측면에서
##됨에
##체인
전공
조건
##부처
개인정보
런던
##간담
저소득
##29
관객
##제와
잠재
김용
법무부
##시장을
전원
유권
컬러
go
진행할
조사한
장을
##경찰서는
신제품
결과에
우주
혼란
미칠
St
고소
피의
##실장
김모
방사
비례
올린
사람을
바람직
##폭이
순이익
반박
광주시
##통화
##데요
특성
##전은
지원할
중장
시급
##안정
강의
안타
##졌고
영업이익은
여당
##기반
##업종
실행
즉시
자살
보일
##미래
부대
소상공
회사의
외교부
##지인
##책임
주인공
의뢰
김기
명품
가졌다
의사를
기록하고
냈다
사기
##바이오
이제는
인터뷰에서
250
하향
대해선
부총
힘든
서울시는
##선언
물러
##부담
전망이
##선은
면접
당내
예상했다
백악
##시설을
87
저장
박사
참여할
본격화
##렀다
##관계를
##어로
##인권
미니
마련했다
2층
##어는
살해
들어서
키워
협력을
들었다
워크
##저축
사례가
도발
선보인다
원장은
##로그
이스라엘
신흥
깊은
후보를
ed
국민의당
자문
사업이
담긴
천연
활성화를
##지표
한층
기업들의
고속도로
양산
삶의
김재
##되자
##명했다
해당하는
##당국은
제고
지진
방법을
개장
한국과
미세먼지
광화문
##all
상환
입증
개발을
##PG
##동이
행위
고정
한때
98
금강
신용카드
de
##디아
못할
##능력
##식은
시민단체
긍정적인
허가
##널드
디자
보고서
활용할
높게
GDP
김포
##스탄
4천
##감한
발전을
##상과
한국인
##수에
시가총
결정했다
담배
한진
국산
소요
대통령을
그때
전무
사건이
기조
주식을
본부
적립
1시간
시민들이
피고
발언을
납품
##NG
유니
##가치
여객
민주당은
##센터를
##처분
때마다
매출은
##서비스를
가전
##인치
예정입니다
후보의
올렸다
##시대
주가는
수집
##협의
대화를
##프라인
오늘의
이사회
89
##법은
참여해
##져야
##장치
##축제
환영
##지며
숨진
목적으로
인사를
서버
##함이
북핵
한해
중순
##ding
내는
##미술
김해
상하이
여파
상용
떨어졌다
날씨
##너스
모으
이마트
오른쪽
민원
개헌
##문학
사람들은
##협약
편성
후속
것이라
##이라면
열었다
부분이
외무
입국
##시코
195
누가
##점과
US
경매
지역을
계기가
당기순
감염증
93
아들
al
촛불
있으면
예금
##스포츠
판정을
검토하고
8개
##ore
국민이
##사이
주간
94
소셜
비교적
##분석
##역에서
##500
이뤄질
송파
부족한
##고속도로
##순환
##치게
지원한다
오염
##미터
개발에
##력으로
발효
71
금액
선정된
##복합
##이라도
사드
##자도
가격을
더해
포털
탑승
방향으로
처분
##소와
프레
##만8
해제
##센터는
##하라고
부작용
##테인먼트
##재생
없습니다
이뤄진
##ER
친박
위로
##재산
su
30대
조례
넘겨
##방안
추락
그녀
##협상
장착
가속
역량을
##업무
완공
96
##계획을
보이지
태국
LED
##결을
조절
동북
가득
붙잡
징계
##사랑
불구속
##회계
이주
구분
성적
연금
서부
GM
##봐야
엔진
세대
##법상
추모
여론조사
중도
전담
처음이다
자극
고객이
법원
2013
끝난
##닉스
유해
##과학기술
노하우
##오고
pr
비용을
평택
##신고
성격
##평화
터키
위에
박정
스타트
##면서도
마치고
##합의
보낸
매출액은
400
##사건
97
##방향
탄생
떠오
클라우드
제도를
CN
변화가
설득
그만큼
##se
1개
높이고
기준을
##많은
블록
원활
##재가
이슬
분위기를
순매도
삶을
수색
##물의
뛰어난
##른다
메모
##단과
둔화
항의
1심
화성
내외
떨어져
##00만원을
진행되는
##하려면
김씨는
경우도
집권
이사장
감시
##가량
##세다
##수와
##미를
교수가
MB
##위원회의
출근
공기
##회관
##ry
##EC
방문한
엄청
강화하고
##공사는
협상을
초등
추첨
있음을
최근에는
##전의
##서트
미군
채무
##만원의
가시
##이로
##측의
오피스텔
##참여
간편
발휘
##케어
##증이
측정
납부
출판
##신의
앞장
##위원장이
##고객
##유를
##람회
투쟁
국토교통
철저히
했고
##물로
벌금
상태에서
남해
##료가
무슨
응급
##인력
세미나
##음이
소설
성인
갖춰
축하
##채권
달한다
눈이
##공헌
##사업에
진상
승진
##스티벌
##포구
##소시
검사를
일은
##류의
##rou
##낸셜
입원
경우는
유족
##동기
후보자
느낄
세워
##된다는
뒤를
##공연
모습이
정부에
쓰는
##aily
##원들이
year
매달
입은
가능해
##형이
그간
박영
만남
포토
어려울
노트
우승
##2천
신호
확대해
창립
늘려
정식
양도
이영
##도에서
##다시
긴장
수여
혼자
융합
순천
기아차
소송을
포럼
영하
투자자
##PA
예정인
100만
시정
맡고
##iz
##카이
일방
##벤처
일정을
82
강세를
행정부
콘텐츠를
있다며
대량
유발
문화재
무시
느껴
항상
영등
파리
몰려
김상
전파
##관의
##이기도
##뱅크
##클럽
강화를
##민주연합
본회의
강연
맞이
비교해
신분
are
##og
공정거래
실태
##실은
경제가
대표와
캠페인
분석한
입을
부탁
공개했다
##계에
##물은
현재의
본인
쇼핑몰
태양광
예상되는
곧바로
##론이
##TI
군은
무너
부장판
##소속
총리가
##ice
신청을
1회
아예
감축
수혜
올리
높아지고
보여주는
##정당
##관에
사회복지
수업
##힌다
All
의존
해군
얻고
제출한
2명
복잡
it
농림
불거
기후
인지
##ights
맞은
추진하는
##스테
20년
수백
대표이
매주
고등학교
시리아
수익률
##ue
순으로
별도로
과제
##신도시
3년간
화려
##개가
기재
서류
배달
손님
전후
##MW
소외
##지역의
MOU
정밀
정무
경주
개선을
##31
30여
종사
투자의견
남녀
간단
기업에
시공
##그룹의
원장
나아가
단축
지방자치단체
간부
조사하고
따로
아우
##35
##기사
멕시코
##한데
낮추
##인에
##통합당
북한에
ch
##화하고
출산
##체의
격려
수많은
##만4
##계약을
##심히
##터테인먼트
##호텔에서
##산업의
잠정
했는데
##스포
화면
제품의
##해왔
전형
캠페
담아
고객의
운항
##ere
##LS
그럼
##수지
기업은
클래
부산시
##단으로
서울의
붕괴
도널드
갖추고
##췄다
##권과
이미지를
마련해
지분을
한국에
명절
추경
저작
정해
단행
##DA
##실로
물리
미래를
가수
##만6
무관
가게
##졌다고
기관은
##신용
곳에
##연맹
면담
##건설은
##자회담
##들로부터
성향
한국을
##관과
생긴
##페이
이었다
##보장
한마
##안과
환경을
##심이
음주
잠시
사업의
동료
메시지를
클린
##세의
선보인
입장이다
끝나
100여
별도의
수험
목소리가
새정치민주연합
줄여
이번이
거짓
인민
미국에서
##제공
파업
최저임금
통해서
##여성
나서고
##화하는
10대
높이는
나선다
##었으며
부터
edaily
1백
촉진
공포
멀티
내놓은
안산
여성의
5년간
##이상
##점의
점점
##분쯤
담보
환자가
근로자
의혹이
##만7
측이
전기차
조속
그리
개최한다
부적
초고
IMF
##22
가해
스페인
지지를
##PS
목포
##치의
높였다
분석이다
능력을
1일부터
##ard
##같은
치러
주행
가공
갈수록
##고는
부시
##결제
##산이
진행되고
##나갈
##말로
자신을
회의에서
착공
충족
##문에
쓰레
전체의
폭력
안전한
##간에
저렴한
##일에
##ine
유지하고
주석
부부
##우리당
##재로
##cc
##름이
아닌가
여성이
사전에
물량
##용으로
열렸다
지역은
##위와
위탁
잡고
pl
##미널
적용해
##yr
배포
검찰의
좋지
운전자
한국은
방식을
적정
##ell
##조트
증가하고
##ure
평생
실시간으로
일환으로
미래에셋
중국과
Korean
잘못된
##학습
대체로
##요금
실질적인
SBS
도는
섭취
과연
사회공헌
가능성은
대안
부지
3조
충전
관람객
매출을
##바다
소개했다
##어난
앵커멘트
애플리케이션
이모
구체적으로
진행됐다
학술
이용하는
사흘
모두가
상관
국정감
실시한다
##실적
인턴
주당
스페
상가
CD
와이
소장
발의
중대
감정
이때
##교회
선진국
지원하고
comp
비율
부회장
부분을
풀어
중견
속도를
고도
된다는
##공정
확진자
안에서
면세
##45
되었다
새해
였다
동시
선정됐다
협의를
최초의
확대를
케이블
##방안을
대비해
##드가
거래되고
기업을
우려를
얻을
경비
분당
유상
##평을
##거래소
##층의
참여를
##정상회담
열린우리당
81
##진의
유튜
수렴
때도
맞추
그냥
##컷뉴스
##값이
주지
##확인
금리인
2주
데이터를
풍부한
중기
제시한
것이고
rights
##ff
사내
충분한
이슬람
현상이
News
고속
was
LTE
##ib
##팀이
이유가
연주
##러리
월드컵
##삼성
게재
매력
##경찰청
주목된다
들어갔다
입니다
##3천
균형
필요하다는
귀국
has
수학
횡령
감안하면
스탠
##하려고
무소속
비율이
어린이집
##마크
##로의
수익성
##전시
입고
이건
방향을
##사들의
CCTV
원의
물을
##선으로
현장에
오프라인
적자
핵실험
호흡
목표를
연극
##폭을
들이
##놨다
##구청
추산
따뜻한
##상환
정규직
##인데요
##서와
##금지
OE
에스
입건
조국
##일까
영남
이르면
책을
주민들이
##퍼런
기술이
계획이라고
해수
학생들의
집을
당국은
국무총리
일주일
##SE
##었는데
가르
기록하며
최악
문자
전략적
지역사회
재활
나타난
##위원은
데이
##erved
보육
위안부
중고
##설명
연예
권력
##대응
얘기를
고객에게
현대중공업
##쪽으로
##류가
##근로
개성공단
##상에서
##었을
군산
130
유형
##아트
##금으로
##달라고
다수
연내
##인증
사용자
진행했다
##줬다
주장이
##식과
##사례
없애
고향
철회
편입
급여
##대행
심화
건강한
이익을
다녀
##허가
이유를
분야에
끌어올
기온이
쪽으로
열심히
##역에
고등
숙박
살인
수리
##하자는
##청문
##연합회
초래
기소된
##지역에
##대교
적절한
대상이
전부터
방어
##전과
##opyr
##ave
철거
투기
##란히
##간다
에이
강행
야외
##기까지
사용한
현대자동차
##말을
파이낸셜
원래
박원
전당
its
나이
위원장이
잡아
아웃
예를
승리
진행될
##TO
추적
선보였다
생각하는
##bp
##opyright
국고
##반기에
것이며
출자
##법으로
맞게
##해질
내비
모니터링
설명했습니다
쓰고
경향
##수원
의장은
##화한
##국장
규모를
극대화
##수한
##질의
##outh
##교육을
##씨에게
그쳤다
보도합니다
포함된
농민
행사에
##유통
환율은
국민연금
방법으로
민주노총
이민
교통사고
내년부터
면제
마이크로
3억
##와는
로스
달려
신체
우리나라의
항소
119
받아들이
필요하다고
시작해
있는데요
개의
##유플러스
사용해
##부채
재발
패널
이성
최순
구미
단순히
먹는
민주주의
##내용
안심
이게
오름
한국당
비중은
##유치
예정된
메르스
방침을
조세
파워
##임대
가고
골드
주민들의
당기순이익
ICT
수준에
##소재
말해
##락을
##들과의
세상에
건강보험
확대할
북부
독도
구청
테이
직원들이
reserved
##비로
신선
##해지고
점은
했다는
사람들의
운송
##플루
##리면서
##정책을
##물에
파괴
클럽
이어지는
요청했다
1호
호응
##타워
한국이
높이기
공익
##료로
##감은
##과정에서
##출을
이상으로
부분에
##ary
##인들은
아니면
않습니다
##멘텀
발표된
정지
위성
##역이
무죄
##부품
##회로
##사회의
##IT
어울
##사령
##여서
서울중앙지검
문학
육군
##트의
흐름을
##르지
만날
사고로
SW
장면
리더십
##일로
달아
완벽
업체가
일자리를
궁금
시점
맡은
##금속
SU
##업계에
대표를
##친다
살고
기사는
멤버
노선
마련된
##부로
##담보
가이드
항목
차원의
삼성전자가
##리도
정유
주장을
박종
가격에
##시키기
##데이트
게임을
연설
##치로
기자간담
방위
##즈를
목숨
최소한
때문입니다
110
##곳을
주어
소식을
##네트워크
철저한
이전에
완전
분석이
논의를
판단했다
가능할
시술
행사가
사람들
##사용
##소방
몰아
흘러
매체
##한테
공연을
##맥스
작품을
92
##채널
##자본
3명
본사
##지니어
라디오
지목
##시고
검거
서구
##피아
동작
병행
##이지를
연다
입장이
##체제
서울경제
지역경제
◀▶
##정지
에서는
폭으로
##거래일
3배
중장기
##공학
않게
##차량
##시안
##작업을
모습이다
##위원회에
아무런
그러니까
회사가
역임
##금리를
사장이
194
##받침
좋겠다
없지만
##TX
방해
##놀이
##분기에
##곳에
##등을
2020
##구나
##금의
##65
조명
공인
아쉬
전경
부천
##시각
국회에
차량을
##하기는
무산
##판에
자원봉사
생각해
의약품
##주와
수영
현장을
별도
##순위
신중
비중을
##인에게
업그
복원
달했다
##현대
정치권
있으
현직
##료는
높았다
##전문가
최고경영
노력하겠다
##수술
편안
##NA
금리를
외국인이
현안
##심한
LG유플러스
수소
봐야
영업이익이
방한
##비와
##스탠
여러분
함께하는
##나마
애니
자제
기간에
마련됐다
차별화된
긍정적
선포
정황
용의
##1천
인생
원인을
배정
##cent
나타내고
##전으로
##계는
##화폐
오토
91
고객을
##이용
출동
가입자
인명
국내에
##국인
감면
실정
확대하고
##화해
연세대
부분은
진행하는
이하의
장중
맞서
경기가
스크
실시하고
격리
스피
밝히고
##군을
집회
##보안
180
공통
##복을
대대
무더
형태의
확진자가
업데이트
포착
아직도
유명한
한국전
##길이
40대
높일
##보세요
지주
위기를
사유
##자료를
인적
농산물
##예방
인사청문
이로써
마련한
이산
오마이
기여할
##선수
##트가
유튜브
##지어
재벌
신용등급
##통을
알려졌습니다
##OC
지적이다
없도록
점이다
당의
##소시엄
먹고
신축
접어
매월
##기술을
상태로
내지
수사에
한글
능력
Se
역량
의원을
##리게
수험생
일관
##88
##호가
##잡고
600
치열한
##kg
돈이
다행
##집을
씨와
##박물관
세종시
이들을
담고
wor
하자
스타트업
빅데이터
영입
의류
같습니다
계절
애널리스트는
마찬가지로
##per
유아
##교류
재직
뒷받침
경제의
중국에서
사태가
취급
무장
##중심
소녀
체크
##전형
정례
투자가
에는
서명
가질
억제
##타민
##로가
시민들의
##겠느냐
지침
##방이
그에
개척
##검찰
말레이
포장
교육부
체결했다고
유동성
설치된
##음악
##ant
##체육관광
사랑의
보존
대장
국가의
임기
이기
플래
최우수
사이에서
과도한
의식
##배를
가야
무단
영장
대변인
의회
##MS
##ance
후반
진행한
엄격
분노
##2000
서초구
##내기
##프레
수강
##군에
##탄을
##자금을
##창업
역사를
중학교
벌인
사랑을
판매한다
아니고
것인지
10명
##보기
소리
결정할
장례
##광역
판매하는
전달했다
비핵화
9개
정통
##당에
산불
의원과
보좌
원주
전화를
##리포
##mp
해경
김대중
경쟁이
배터리
승용차
##ae
##터를
##AS
면서도
폭염
##촬영
방안도
##르기
이메
자리에
마약
가중
##독교
도민
입사
##당국
결코
걸어
##화할
off
하더라도
##정으로
않다는
##ub
휴가
오마이뉴스
원인이
남성이
영동
##그룹이
성명
꼽았다
##스키
BMW
자발
증상이
또다시
##성도
##illion
##감과
성명을
정도가
유럽연합
##방지
판매를
2시간
##차이즈
##원장
신동
대표하는
박상
엇갈
면역
함유
##개편
떠올
김병
지속될
##디스플레이
제4
##업체의
금속
##ud
협업
선보일
말한
긴밀
프로모
대피
##00만달러
다하겠다
##홈쇼핑
돌아가
추진해
존중
보도에
2위
담겨
발표할
원자력
##발을
HD
##ign
일제히
##고한
##했다가
##행이
있었지만
농가
다문화
묻는
조회
가치가
찾을
NE
재개발
##급여
발간
##33
##네요
도서
응원
집에서
LG전자는
문화예술
유의
##운동을
자영업
예정이라고
##드에서
타임
이어졌다
맡아
간호
연동
TF
전국의
##LED
##정보를
기업으로
##석이
포트
##규제
부근
유연
막을
조합원
##광고
짧은
6천
위험이
유일한
눈을
##리다
##스닥
##uc
김지
결과는
세탁
탓에
오리
sp
##드의
모델을
일부를
##자산운용
##실과
보였
중국에
초점을
##랜차이즈
부정적인
##물산
제외하고
have
##양을
일고
소매
조심
##마스
원천
##졌다는
면적
조지
소규모
간접
성공적으로
뇌물
흑자
개정안
나아
Th
않을까
북측
##캐피
##홀딩
##본부장
##님의
한국은행
50대
배려
집에
명을
전년동기
늘어났다
거래일
어르
전직
##경찰서
베스트
동일한
기념해
삼성전자의
일으키
갖는
스테
발주
왜곡
기각
주기
관리를
24시간
강도
논의가
해안
방치
계획입니다
##수입
##age
열릴
##목으로
세제
유승
관여
##미사일
##계올림픽
OECD
##식의
증가할
다짐
게다가
외국인은
대단
모멘텀
##하더라도
운동을
중소형
독특
percent
##카데
시달
유망
이지
##치에
##재정
경찰의
식으로
다우
관내
게이
##전망
아시아나
내릴
개인의
말레이시아
사건의
저가
사례를
비례대표
South
##면으로
##홀에서
엄청난
기름
##금과
##지수가
작동
도약
동결
됐습니다
공원
##계열
힘이
후보로
##고용
##전지
##신한
##ations
##ich
인기가
##유예
협약을
지역구
증언
다르다
유가족
야간
합의를
위기에
공개한
6자회담
##차로
정책에
##37
속도
업계에
발달
미국에
##시마
탈북
5000
받아야
##하우스
##주행
봤다
거죠
확인하고
이용자
것인가
##55
앉아
##od
##시스템을
뜨거운
비리
최순실
##토론
##기관의
30년
증시가
##억7
##사들은
직원이
##교육청은
현재는
2010
전용면적
##콘텐츠
총장은
##회관에서
##늦게
않는다는
인접
##유산
##36
종전
진짜
청와대는
아버지
##명이다
##지대
##ions
지사는
선착
##건은
##만여
헌법재판
분위기가
올바
규제를
##번에
일산
교섭
그렇지
만들었다
##진과
세계에서
회수
줄일
항공기
수천
이수
받아들여
상상
와인
부정적
아이들이
ET
경험이
별다른
LH
검출
주제
둘째
##시한
##농협
##대회를
양호
요구를
진영
KA
고문
정세
떨어지는
바른미래
##신은
강화해
3000
##공무원
##사업의
##작업
조용
제품이
조사에
중에서
병원으로
사업자
##공제
##히고
사실은
##디자인
사립
##브랜드
준비를
##같이
기관이
체결했다
유효
2명이
##학년도
기능이
연준
##ational
12시
##부산
##잖아요
회사채
유저
SUV
참가한
질의
##레일
##박스
구속영장을
곳에서
마음이
일본이
연대
논란을
##지난
세상을
이은
측근
##기소
현상
창작
남양
##머스
어떠
##께서
inc
##위원회에서
벌써
##ks
신뢰를
유상증
해운대
냉장
쌍용
선사
사후
강동
드러나
##데다
부서
##44
##사항을
흡수
늘어나고
1개월
지점
##주인
무인
명칭
##당과
##기온은
않기
##하지는
##졌던
##듯이
분산
벌여
침몰
##학회
##혁명
연관
않았지만
놀라
##화될
en
##자문
##블릿
제기되고
시대를
사고를
##수출
차익
부패
주유
##스턴
이뤄지지
프로세
7년
빌려
유전
ag
기자들과
목격
갤럭시S
##대학원
진출을
지낸
문화를
##대우
요구하고
강조했습니다
##계좌
연수
연료
##세트
##제일
한국에서
대형마트
중점
소식이
##99
문제의
배럴
해킹
문제와
수습
의원들이
경찰청
꿈을
##셔널
지난해보다
된다고
구성해
화이트
자금이
판매가
6년
##cm
야권
정동
##레이션
##사무소
비율은
##anc
1년간
##이었습니다
체감
##보자
최악의
이외에도
공사를
위주로
3층
##발표
모르는
아니라고
##기계
신형
살펴보면
기업과
논문
난민
##교사
불어
일이다
##SI
만나보세요
제품에
진정한
심사를
감안해
측의
언어
##인사
연봉
##즈는
성추
치매
##가입
개최했다
공개된
##메이션
시가총액
선보이고
스티
가짜
영향이
A씨
세계적으로
누리꾼
##정과
이번에는
##대전
몸을
이뤄졌다
윤리
신도시
공기업
기반을
##하라는
##농업
이른다
얻어
클린턴
거래가
##연구원은
크지
보고서를
손해배
급격히
위생
대통령에게
일하는
유지했다
un
##예정
##ount
##ung
##님이
4대강
알리
행복한
포함돼
반대하는
뒤에
##의약품
##부에서
유지할
배상
많고
펼치고
금융위
해결을
인테
신문은
##억8
찾기
공간을
일본은
재생
##ead
청소
문화체육관광
블룸
재해
차이
지원해
분할
저작권
제품으로
출국
##end
내년도
발견된
##창조
국민들의
ad
벌였다
##달아
하이브
##금액
첫날
교회
스트레
빠진
##노컷뉴스
사모
기업인
경제성장
##MB
아닐
페스티벌
결론
운영을
국민들이
##국으로
환자의
부회장은
##시청
목숨을
2012
모은
그러면
##34
서울에서
선별
As
고가
##하다가
기원
##ome
100만원
전격
##GB
끊임
##사업은
박원순
##따라
복구
##리그
비타민
배송
되기
보다는
방통
관계가
안전을
접목
##았지만
고조
##화재
비공개
바람이
인천공항
대사
대상은
대출을
여파로
하던
인텔
방송통신
요리
##설계
전년대비
사안
##성한
불과하다
##준표
객관
사건에
얘기다
##ther
체제
꼽힌다
다음은
##병을
이어가고
800
##DS
##장인
##차별
당뇨
밀려
2개월
소비자들의
##센트
##59
신년
협박
홈페이지를
구상
노트북
##두에
##트라
##팀을
수면
##범위
동맹
##ile
##생활을
합작
##모를
##적한
근처
전수
늘어나는
얻은
성폭행
민주당이
실효
알리는
다이어
경력
안양
깊이
4조
여부에
반려
연말까지
장관의
##변화
독점
대다
##났습니다
##리즘
세포
##졌지만
##집니다
강세
태블릿
자택
조종
G20
##FA
##억6
내내
시원
##구로
세계적
투입해
소식에
로드
##카데미
생산하는
140
주목을
##5천
##니저
준비하고
디자이너
기증
##정비
전부
##오염
블룸버그
강화할
프랜차이즈
##리면
김수
통일부
약세를
전산
##WS
드라이
순환
공적
##day
##IP
인근에
##은행과
컨소시엄
김형
##가와
방안이
비용이
##장애인
##로로
##공사가
세금을
동향
낙찰
공군
자가
##테이너
##폭력
강서
조사에서
예정이며
말하는
은퇴
##운전
하드
서울시장
학원
##해운
논의할
유용
곳으로
강화하는
기대를
경쟁을
소화
듯한
들어갈
신고를
##감에
가깝
##38
한국경제TV
##39
저소득층
측에
다루
노동자
업그레이드
주장하고
환율이
출시한
과정에
not
정상화
용역
이것이
##법과
##제조
대목
출시했다
콘서트
##되기도
원격
5대
심장
##키스탄
줄이고
일간
안동
국세청
손실
전송
과세
##있게
발생해
원내대표가
##선에서
##되도록
예상보다
아무리
50여
##보유
과태
알게
아세
의도
그만
이견
가능하며
##체에
발령
패키지
명령
##표준
7천
도출
##리자
개발해
않아도
조치가
시행령
대립
제조업체
40여
##야말로
맞지
일각에서는
주변에
사항은
아직까지
확보한
##제철
덕분에
지나치게
행위를
검은
##퍼스
나스닥
오를
##FP
반영해
시기에
Nor
아는
##처는
연구를
소상공인
널리
고시
산업통상
섬유
동구
중국인
모으고
지적도
영국의
##들이다
이태
##비의
당연히
##게는
지원이
##실한
즐기는
전까지
##77
나타나고
선전
태평양
확인했다
자연스럽게
##들에게는
##예요
##재난
심한
극단
금강산
이례
테크
부장판사
올해부터
생겨
하여
##절을
##유럽
CP
성폭력
차지하고
삭제
중반
확보를
직장인
변호사는
저항
##2억원
##ans
수준인
선정해
않지만
겪는
없기
동북아
##수기
##우스
자유롭게
육아
시설을
식사
한창
삼성S
방북
선을
생활을
##조달
어깨
장병
홍준표
##함과
의정부
명시
수익률을
##국대
##검토
##00만원으로
##ould
블로그
##류에
제기한
없었던
권리
보이며
그게
##음에
그래도
##pt
라이프
한우
재고
##방에
CBS노컷뉴스
유가증권
건너
##제품을
##건설이
##캠프
##타이어
중국을
다섯
슬로
육박
남북관계
받기
회동
##하시
차를
먹을
있어요
##너지를
참여했다
##편의
전반에
고유
노력이
##하였
##교수
근육
he
유로존
##요타
레드
전인
##평형
##주도
단위
강요
최고경영자
압도
음식을
전액
이병
추억
호조
야구
##무성
대우조선
##체계를
제네
##orm
기자회견에서
##시간을
중립
화려한
생각하고
가서
재판에
마련할
##무기
up
##동물
##ide
##서치
애초
임신
제안했다
대답
향한
상황은
11개
공조
##oT
한양
그를
##기한
본문
반대로
들어갔
##정부의
공산
지사
소년
않았습니다
##아웃
##장도
서비스가
##하세요
##국에서
두려
##act
##어져
##만원에
##억4
인상을
##크라
##과정을
되도록
##협회는
진화
점유율
이혼
산업통상자원
AR
김정일
국민을
정확히
##주간
##3000
##국장은
크루
하이브리드
##플레이션
사회의
12개
작성한
동네
가맹점
거친
##리포니아
별로
중개
##인포
해임
갈등을
동남아
프린
되돌
##행사를
어르신
녹취
누군
원화
##조한
##통신은
##목적
##ack
##르트
있었습니다
원가
##지역에서
##았다고
PB
종이
##000만원을
헬스
어렵다는
##모임
160
4개월
텔레
##any
업계의
앞장서
아산
기상청은
그랜드
정책이
특혜
전했습니다
2011
제기됐다
넣어
활동에
##튜디오
their
##구에서
예외
##부대
주장하는
##out
타결
유행
##청사
동생
전문기업
##곳의
서비스는
EC
선착순
쿠키
두드러
올바른
시세
벤처기업
하락세를
경기침
##렸던
##절차
구직
합의했다
저축은행
범위
스위스
##so
응모
나누고
연초
요인
총리의
코엑
안드로
하나인
##전에서
총재는
##했었다
아빠
##TS
##놓은
##호는
손실을
회장과
그렇다면
##레인
연일
그려
도덕
##투자증권은
실용
##로에
나서는
##치기
고수
##qu
임직
##집행
##효율
##직한
꼼꼼
유일하게
기록을
조항
##에스
행정안전
대상을
금리가
넘어서
성공한
출하
##ated
김민
2단계
개시
언론에
##점유
##회의에
지리
도모
마지막으로
북한을
최대의
마켓
##니는
##벤션
독특한
##절한
##페라
특화
성공했다
지닌
기록해
금융위기
##ical
미흡
##서로
회장을
법조
생각합니다
관할
이인
줄이
열차
분들이
커질
##지원센터
양해
이송
정의당
개정안을
과천
장악
3분의
##ost
삼성물산
이씨는
8천
장성
##EA
지명
변화에
물질
불편을
갈등이
단순한
재단
##위험
조언했다
이사장은
##실히
판결을
##풍이
다음날
##석유
exp
필요성을
##RA
##천군
##억9
지금도
수출이
규모다
UN
앞당
##구와
##자들과
##ence
##ber
책정
##마케팅
스웨
물어
##로스
들어가는
경제를
부착
##전용
지상파
입시
쉬운
##ex
산업의
롯데백화점
해마다
대부분이
won
##초등학교
응시
뒤늦게
수치다
##랍니다
장마
협상이
끌었다
박성
SC
집중적으로
준수
구로
실시할
##북도
연습
가능성에
선제
희망을
##IA
##장관은
##폴리오
송도
내각
비상대책
모범
##반도체
성사
있었고
의원들은
##줘야
규탄
##ov
##ra
신한금융
##모씨
제공해
##학적
##빌딩
##소한
##협약을
이내에
##지다
운영한다
살려
식당
백악관
어려움이
##100
##회의실에서
##업체가
전국에
##3억원
##신탁
인력을
##청사에서
학생들은
곳곳에
출시된
##담보대출
주한미
미뤄
부사장은
입점
이윤
200여
좌우
사진은
유관
##나라는
##르크
후에
대한민국의
##법의
포괄
##SC
조사결과
그것이
황금
##가락
거치
마크
해고
##스럽다
##수급
##곳이
여기서
##통일
분양가
##물과
##본부장은
##끼리
전시회
KT는
혈액
##실장은
아이를
있느냐
자료에
입장에서
700
무조건
##und
##조치를
경찰과
나가겠다
모았다
사업으로
약간
지불
피의자
시나
PD
##정부가
내놨다
있을까
막대한
합리적인
결론을
미국을
곳이다
흡연
청산
##로도
둘러싸
##해졌다
중에는
현역
크고
편의점
고객들이
확보하고
3명이
4명
주민들은
보복
##여대
##진흥원
인건
어려움
때문으로
1명이
점에
우울
유치원
##동조합
##타임스
쓰레기
IoT
cl
유료
##풀이
특강
부문에서
일어난
맺고
황교
광복
North
두번째
##85
했으나
정작
기존에
##부동산
##환자
라면서
즐거
##우기
노조는
1등
사건은
주체
서울중앙지법
##업계의
2년간
만성
이상인
에어컨
성매매
190
김치
기대감이
단말기
##기관인
기독교
안드로이드
##가며
아니라는
안정을
##HD
불황
지속가능
##반을
전망을
설치해
신장
##보조
전반적인
비싼
자진
##격이
##공시
마라
확인한
당국이
김무성
양적
세트
KTX
##하되
##중국
수차례
과장
백신
추정되는
##CBS
##버린
##십자
플러스
##6억원
불만을
##층이
##팀장은
어떠한
5명
##처가
##말까지
지원에
##ie
##살을
식약
##mer
##외교
끝까지
구성돼
수사가
나노
속초
지능
자유무역
발전에
개관
##된다면
선보이는
##청구
사무실
르노
예보
맛을
나오지
농어
##차익
고용노동
1999년
##제도를
##문의
##이라며
##사람
컨테이너
줄이는
전국적으로
원고
간담회를
관해
말이다
##진에
회사를
전라
교황
개최한다고
추진한다
##스트는
추정된다
##기간은
##저널
가벼
동대문
아트
##ident
유전자
관측이
생기
과일
##IST
##급식
서울과
##렸고
##시설이
분석해
##75
모델로
성분
중소기업의
정원
내년에
만들어진
감지
물품
관계자들이
관찰
상시
이집
부활
뷰티
##gh
내륙
요구한
방법이
이후에
##선과
심지어
##랜트
대응을
요인이
##만은
교도
정몽
증가하는
그럼에도
##겠고
음료
비전
밀어
경제에
수송
패턴
##행위를
대학교
##동향
쿠폰
올해도
점수를
사찰
##끄러
##투어
전분기
산학
도입을
것인
선택할
투자자들의
발표를
##지니어링
##뉴얼
원자재
D램
##처벌
기기
돕는
입지
##완화
지향
##비중
부가
말로
앞세
##OR
머리
한중
털어
##투쟁
##etw
나를
위원장의
입력
##푸드
1∼
5배
그럴
경우에
사태를
##통제
전국에서
##DB
##센티브
광양
고려대
##언스
파주
##는가
견인
나의
##법원
##이의
##곳에서
공화당
시너지
##근무
유사한
계속해서
윈도
롯데마트
조현
관절
상정
10분
진단했다
기관의
##승을
##층을
##매를
##도서관
A씨가
우대
성장할
공중
교보
기간을
투자하는
박사는
31일까지
최고치를
##과장은
적합한
있으니
갖게
공동대표
##tern
##연한
이화
실시했다
느낌을
은행의
신라
유포
실망
연평균
##문제를
잠실
##201
한나라당은
명백
##퍼런스
부양
네덜
남한
타격을
없게
인증을
전문가들의
있을지
전교
##프리
유예
##대사
넥슨
장소
조짐
##보수
불투
지역으로
도달
##가격이
외신
##국회
곳곳에서
걸려
장점
부사장
##쉽게
차량이
손해배상
강력히
됐다고
모터
원으로
소비자가
수술을
메모리
##발언
##설이
##64
합류
##전기
직면
##됐을
인용해
업체들이
승인을
보지
이경
불을
시민의
열리고
출간
##니지
증명
시대에
일괄
교수의
행사에는
##당국이
하나금융
다수의
급속
하천
연체
##세와
발병
당한
##사업이
국민에게
거주하는
의혹에
##억여
충격을
##판이
표명
민주통합당
집값
빠져나
2009
대선후보
SM
##청의
상태를
사람들을
타이어
##나요
##uring
FT
무대
##원자
##아버
직권
보험료
##설비
##주의를
합쳐
물량이
오랫
##가정
##균형
##박한
시간에
##매수
업체는
주문했다
공급하는
논쟁
중복
민주당의
브랜드를
작업이
##기간을
보강
찾고
간담회
팀장은
근거로
아니지만
##낸다
빌딩
금융투자
법제
진로
도서관
지수가
##의로
##문에서
안된다
범행을
로이터
소액
fir
납치
아랍
##정도
##회사인
연루
획기
외국계
초등학생
파악하고
##관으로
들어선
##기본
매장을
보조금
국경
##노트
##해지는
##ID
보고서는
우호
##oul
서서
외화
발송
이어진
언급했다
##활성
인테리어
##총회
선관
기록했다고
주류
##아동
판교
쇠고기
해결할
건강을
때보다
##오롱
청탁
나타날
멘토
##역으로
##일인
남구
##방위
마리
부합
때부터
##300
##에게도
돼야
조금씩
김선
##학기
정도다
해주
이후에도
황교안
그들의
##받지
국회가
##84
##one
설립된
사이의
##면에서
달러를
어디서
실시한다고
2회
시작됐다
##가격은
##예금
전망입니다
##8억원
직원들의
##vel
##7억원
빚어
##보겠습니다
##미가
##숙한
STX
감상
##ass
350
경유
국가가
바람에
##지요
도움
평가다
자산운용
체납
영광
LG화학
때가
##도어
인센티브
구성됐다
이름으로
그래픽
올들어
사들
날씨가
번호
않았다고
자국
스키
과징
rec
말씀드
자동으로
구축을
##기세포
##진보
대표적
Pr
경제부
##크를
##사업자
##필요
이끄
소비자들이
올해로
표창
##바지
조율
당원
국제사회
##민의
ab
예비후보
신속한
##역과
##디션
##을까
오르는
상속
##림을
바랍니다
##블록
주시
재료
홈플러스
##위원장을
지금의
기금
his
오랫동안
1월부터
VR
대치
국무총
##ition
보여주
생길
등산
성추행
싶어
공고
대중교통
##재해
##회사의
아시아나항공
##우리
작용할
속도가
넓은
제로
피아
그다
##달러를
##학원
추첨을
금품을
##캐피탈
대구시
##EMAIL
로비
돋보
##되거나
10년간
분석을
찾아가
배후
성장률
##화되고
##1억원
프로젝트를
야생
불공정
코너
##되지만
##기자본
참사
계획이
전신
뒤집
##에서부터
##부족
밝혀졌다
북구
##개사
##우주
##됐으나
##하니
운영할
나가는
쓰러
상영
집행유예
대륙
내리고
연계해
외국인의
예상하고
보냈다
상승을
##금액은
역사적
올리고
##재료
개봉
10만원
나타났습니다
손상
고기
수준이
판단을
파생
오르고
이뤄지고
산정
술을
휘발
##이었지만
후보자는
마이너스
요소
조리
토요일
않았던
여권
##린이
아끼
탈당
요구에
##감도
##정보통신
##글로벌
##uct
가족이
청원
##박람회
##귀포
본인이
증정한다
##매출
우리나라는
각별
제어
300여
구체적
출연해
##이노
안타까
유죄
규정을
##로서는
스트레스
내야
기업들은
##상공회의
청와대가
프라
확립
종목은
누릴
##업체들이
주부
##로지
증시는
##도까지
했으며
외식
민정
##산업단지
포르
현대차는
이끄는
에코
1998년
포트폴리오
##ous
##경이
일종의
명동
파티
##ime
노하우를
캠페인을
다채
##할지
20만
이론
노동당
뿌리
제품이다
일선
분담
생생
컸다
##IN
인천시
사외
##감사
##감으로
제기했다
암호
##연의
높고
지역주민
직접적인
시장점유
사로
##000만달러
스웨덴
NHN
##거리를
##관리를
양해각
##매김
적응
진주
##합병
타당
애니메이션
CO
LA
강북
한류
경기를
##스바
돕기
여름철
##연수
초청해
내리는
사용하고
들려
##트롤
조건을
비준
네덜란드
발표하고
##었기
기반의
움직임을
16개
소니
##위해
군의
탁월
5조
디자인을
출신의
한다면
자리매김
##ors
##리콘
기자의
허리
##도미사일
무한
##에서만
마시
메디
기간이
여유
also
올리는
팔아
반박했다
##네트
##위안
느끼는
##십니까
##성으로
운영에
##내에
상품은
체류
추가적인
이석
##지원을
각국
투자자들이
오늘은
연합인포
의원들의
경신
##모델링
##inist
se
##스카
앞으로는
##사스
서귀포
##업체에
사물
적용한
대결
갖는다
##코노
반영한
예상됩니다
경영권
업체인
패러
뛰어나
대부
##진단
한계가
NEWS
CNN
##사업으로
에게
평가가
상세
##풍을
포함됐다
공장을
말라
해명
신도
##청과
ELS
출시를
아마존
##1일
##파가
판문
일반적으로
강좌
정한
OLED
증가로
일요일
고려할
웃돌
진도
##ement
##산의
악성
국가안보
열려
자율주행
화합
1만원
같아
콘셉
제공된다
##망이
다각
DB
##기관이
메인
part
미치지
상회
1단계
제5
호응을
장기간
부총리
인간의
##ace
##주차
##마를
맞물
성공적인
##기관에
꼬집
대의
##하느냐
분석된다
추후
##군과
##남도
세운
박차를
##드와
행동을
##스토어
현지시각
확대하는
확보할
많지
외면
##라스틱
거뒀
원칙을
##BM
##혜택
마련하고
신약
##장관이
모금
뛰어넘
안성
상무는
수신
도박
##하신
지급하는
않았고
밀집
결정에
그것을
##으로도
##차례에
##HO
##ech
금감원
확대될
달라고
배럴당
영세
막아
출마를
진행해
##홍보
##oll
병원에서
경고했다
찾지
신속하게
전경련
가려
항만
수거
드러난
김장
올릴
구매할
특성을
편이다
이번주
유리한
고객들의
전반적으로
걸릴
반환
해체
신차
간에
골목
알파
구청장
##융합
의문
보건복지부
환경부
##포먼
김승
##쪽에
this
소수
겨냥한
입장에서는
##기업이
2백
불참
##형으로
부총리는
믿고
에도
스크린
##색을
선두
박주
광명
외환은행
위촉
##공화
제목의
cont
which
탄력
참여하고
##ire
항소심
되며
구조를
순이었다
##졌으며
터치
##인식
신천
거세
시인
##제작
유승민
삼척
교원
##배우
잠수
어렵게
SK텔레콤은
##엔터테인먼트
여성은
1대
태도를
대여
방식의
##주얼
민주화
저하
지역별
줄이기
##관용
인식을
약속했다
능력이
30일까지
##결정
##드에
자체를
##ik
서울시가
보합
AFP
따져
동행
##49
##품질
무효
나타나는
##ult
엘리
개인이
보행
말씀을
라이브
해양수산
재차
##바이트
##form
##ade
1997년
회원국
##취를
##속에
최경
갈아
차가
방법은
새누리당은
헌재
##력발전
꾸준한
점수
##진핑
그것은
##66
아이가
시의
분열
전당대회
##vern
내놓았다
현황을
법안을
##조작
얼굴을
시기를
며칠
소집
가산
적어도
위법
##스트리트
단백
잇는
것보다
##지역을
##관계가
##시장과
염두에
##시오
첫째
높아진
않겠다
종가
통영
##페이스
##5000
사회에
기록할
출신인
천안함
다운로드
되찾
SK하이
##FC
##았으며
밖으로
거래소
지난해부터
워낙
무리
연합인포맥스
통화에서
남겨
15개
제주시
생물
방문객
검찰총
이하로
##사법
곳을
##문화재
##청소년
없으며
혁신을
나흘
이뤄지는
##청에서
뉴스스탠
같아요
요인으로
떨어질
청와대에서
무력
##평등
수출입
##명령
미분양
일본에서
결정했다고
##학규
##enc
시위를
##바람
##라의
우리은행
수시로
##지역으로
내놓고
기도
수산
받았다고
##대책을
병역
저평가
##름을
##활동에
##일랜드
안정적
강조한
##이후
##비서관
정규
선호하는
##지점
서면
나쁜
##었으나
후쿠
예전
170
##실의
위헌
협력해
긍정적으로
밀양
드림
##소리
확대에
방송을
비교하면
정도를
협조를
장르
##마리
행태
##총생산
1억원
골자로
빨라
NY
규정하고
##인도
머리를
##동강
취약계층
씨에게
비디오
디젤
걸린
보내는
일명
동원해
##심으로
되면서
독서
확인해
##모터
장관과
##한을
##우러
아세안
##과세
사람들에게
##자격
통행
##ian
기술개발
감찰
움직임이
##연히
##함께
의미한다
영웅
중이며
정보가
우량
총선에서
##민족
질문을
메가
일찍
위조
성형
말에
신청할
몽골
##32
##메달
교육감
종목이
조각
물이
##라이트
기준이
나중에
이나
##일의
##했는지
담당하는
##ond
##기간이
프레스
와서
##상품을
자민
도중
합의한
우크라
택배
##포를
높아질
대가
사건과
##ge
범위를
##만5000
중증
##체로
##노인
보여준다
이념
개선에
코오롱
선거를
헤어
##축산
확산되고
##눈에
정보기술
놀이
크기
가족과
MM
##품이
##시트
삼성동
2인
##are
환자는
##────────
##기부
이것은
문제점을
프로그램은
흔히
증여
일치
##까지도
##프는
관악
송파구
식물
바른미래당
##남부
위해선
시진핑
경제협력
오찬
##군요
##일간
확보해
정상회담을
경남도
##가구를
수를
청계
##고에
##밀리
영업을
주택담보대출
##DC
모자
##길에
한마디
위험을
##현장
여겨
상담을
번째로
파산
관점에서
아파트를
하나가
높아졌다
적용할
학생이
어른
추출
영유
리모델링
많았고
##트랙
종류
주방
학교에
드러냈다
약속을
찾았다
즐거운
한꺼
##RI
연구원
못한다
공격을
김한
##작가
심판
몸에
##과장
탈퇴
##arket
##하기에
돼지
Com
성장세를
퍼포먼
맥주
##라운드
좋아하는
##구매
유지하는
말할
##경제부
##국제공항
안다
과잉
상관없이
비판을
기준금리
후보와
##스런
모의
불필요
여부는
업체의
철수
정상회의
Un
청주시
꼽히는
##과제
폭락
마주
##모집
선생님
부추
박물관
발견됐다
이렇
##첨단
##con
프라이
##증가
치킨
대통령에
치아
##보도
고객들에게
네오
정책위의
##달라는
한꺼번에
이어갔다
##계와
##마자
내장
##센터에
카카오톡
집회를
##편을
정책의
##ual
광고를
확산을
개발하고
##둘러
유인
##ase
박지원
##주군
발생하지
연방준비
월급
연구소
뉴스스탠드에서
우크라이나
##카드는
##아리
이의
트럭
높다는
드론
만만
##여명의
순수
특유의
탄소
이진
청렴
##는데도
대국민
솔루션을
시작한다
대림
##다이
끝내
그나마
##74
크리스마스
경위를
현대백화점
주식형
홀로
##투자가
홈페이지에
삼아
##행동
기술과
후배
##권도
상공
수확
북한과
##들었다
##79
옷을
##사실
정선
##창출
##다리
##례를
대학의
##리츠
수상했다
실시하는
전임
끊임없이
##교섭
##측에
##환경을
늘리는
삼성증권
관계없이
답변을
향상을
7월부터
전년보다
##69
##eg
위장
마케팅을
중계
촉구하는
호전
##렸다고
자리잡
블록체인
마스크를
##생태
##코리아는
해결하기
원산
재능
##검사를
늘리고
관리에
##드린다
넘어섰다
KO
얻었다
제천
대행
세상
마련을
##나눔
결정이
중요성을
카드를
걸친
본부장은
온실
규명
어우러
##방해
고통을
##쳤습니다
거두
비싸
축산
로켓
소독
활발한
자신들의
차이를
태백
유성
##중앙회
당국의
이유다
재경
확인된
중재
권한을
##에이
##해달라
양극
관행
대응할
##스바겐
국적
사우디
기초자산
않았다는
하거나
여야가
##감염
##질랜드
맞고
표결
##세권
##였지만
5개월
5분
사람에게
##ood
상습
차입
##RS
##브로
193
뿐이다
이뤄진다
속속
이통
지어
투자해
학생들에게
선정했다
방안에
국민은행
##5일
관련해서는
웹사이트
무용
필요할
이틀간
int
말하고
SA
##54
이야기가
관리하는
내년에는
부문의
파격
일반적인
종목의
##채를
원에
각오
손학규
3월부터
##온다
추구하는
지지율
앞선
##메시
서대문
##ank
BB
##왔던
장비를
공영
##지노
있겠
이준
계속되고
옵션
책임이
##정부는
출신으로
구독
반기
##진료
조속히
들을
낙관
이어갈
##만대
모른다
##식에는
소비자의
##esident
항공사
수령
신화
국토해양
들어오
##직자
##가구가
예산이
나왔습니다
구호
잡은
물결
강수
부의
성능을
##고등학교
회사측은
##능력을
주파
##5억원
##려야
패스트
조사가
##89
금융권
설립한
##금리가
##면이
##erm
의원도
이름이
관심과
##프라이
안타깝
##편이
파이낸셜뉴스
속도로
이런일이
##았다는
##옵니다
드는
##경북
##hen
지정된
Tr
##과를
회사에
경우에도
티켓
FR
데는
주민등록
##포스
시민사회
more
병원에
여신
부드러
순위
정부를
설명하고
over
임용
올라가
위안화
논의했다
이천
나도
##지역은
경찰관
##도급
복용
반응이
동서
플로
한눈에
##패를
인식이
기대했다
강구
뒤로
##면의
결정한
전사
연구팀은
8년
예년
앨범
장관을
실장은
노원
처리를
안전성
늦게
13개
가격으로
캠핑
여행을
##비즈
##케미
3가지
소식통
양자
재검토
개선이
들어서는
겨울철
##방의
대책이
AT
SS
주관하는
메이크
##종이
대대적인
4명이
쌓아
만찬
선고했다
##달러에
기온은
재현
성장이
사람도
나타내는
##지급
##ake
##정신
##워드
제공한
합의가
##고와
보내고
##보에
사망자
##1000
손쉽게
아이디어를
국토부
연구결과
##동맹
행사에서
Pro
##ame
국내총생산
##PI
##경은
##가요
15년
연결하는
감안할
신청한
##문화를
얘기가
##지부
위치해
##칙을
##모비스
##야구
##인프라
##목이
선배
설명을
영등포
해명했다
OS
우려도
사령
비판이
훈련을
차질
##느라
##동과
고스
##달러로
체결한
##유로
본인의
재활용
이집트
##태평양
법원은
소홀
공정한
탈락
WS
근본적인
작업에
##터미널
##텍은
민감한
거래량은
##나이
하남
발부
##총회를
브리핑에서
제2차
이룬
##베이션
연결해
##내에서
비트
즐기
언급한
코로나19로
시대의
실물
시작할
사용되는
있었다고
기다리고
정치인
부가가
Copyright
태극
작전
거대한
##센터가
고려하면
새마을
가라
##업소
성동
예상치
##학자
후임
론칭
##인재
적자를
내걸
##시간이
##대통령
버락
국회를
선행
##의회는
##되던
뉴질랜드
김명
활용하는
##즈의
요양
생기는
##포지
비난했다
실적은
우편
브리핑을
편의를
##조의
리서치
##보고서
의지가
##사원
물에
일에
##왔습니다
##층에
##방식
6만
것이라며
##명에서
me
##4천
1주일
참가해
발생하고
벤츠
푸틴
손에
비율을
해외에서
번역
##입찰
선거에
보면서
레스토
원이
않다고
500여
##비서
일본에
우회
물건을
통화정책
올해의
익산
점심
했을
바닷
##막을
##76
기대할
남동
맞춘
사망한
예상되고
dis
폭탄
트리
수질
##만족
베를
약세
나름
##해가
전국이
원료
##광장에서
지원하기
##연이
세련
시간은
##신저
접한
화제가
##팀의
평년
하나는
학생들을
배제할
레스토랑
##현황
효율적인
##ep
신재생
걸고
치고
##리에서
벌어진
수의
페이
##유지
뚜한
탈출
##연도
바꾸는
국방부는
KB금융
상태가
맑은
여는
명목으로
수요를
준비하는
그룹의
ETF
알리고
허가를
사각
##코노미
분석됐다
##효과를
재판을
무대에
기쁘
##유출
불교
잡았다
주장했습니다
KB국민
감염병
새정치연합
스카이
##감시
사업비
내용으로
다할
월스트리트
##생이
과다
시나리오
떠난
현대건설
##형은
##그러
노력할
홈쇼핑
진실
썼다
##vernment
두루
계속될
##역사
실정이다
한시
count
##셔야
##기업에
마음으로
조성을
순차
낮춰
금요일
##업계는
거예요
이메일
세웠다
이원
합성
보여주고
공청
세입
안정적으로
되는데
침수
매장에서
전염
건전
LNG
임차
##대변
##시에서
조직을
나간
면밀
투자에
FO
선거에서
##버트
##연설
9천
##시픽
불과했다
이어져
안팎의
전체를
##동에서
##기관과
##됐기
혹시
##들고
대주주
강진
예산안
##상황을
##보상
우리금융
법인세
가리
##배당
##본다
급감
성공을
##ree
이광
토로
국비
정부에서
석탄
지역이
위주의
서울고
동성
혜택이
##비전
공급이
득표
##테러
##리조트
분야를
##roup
##탄소
500만원
##특위
느다
홍성
출생
Chin
삼성전자와
열악
현실을
가파
채취
폭넓
더블
##지않
마산
네트워크를
제작한
말은
미마
보편
##lic
##원인
저지른
한국어
스마트폰을
##하에
자매
##웠던
책은
예정돼
대상에
가이드라인
##저축은행
갖췄다
##여개
대지
경품
부르
##광장
기술력을
out
정권의
신혼
질병관리
##구간
회담을
바라는
대가로
Seoul
2008
효과적으로
대우조선해양
##프를
나다
유럽의
##fter
클래식
반성
공판
정수
찍은
소위
처분을
##통신이
##되어야
스튜디오
여부가
간단한
##업은
확실한
법원이
##호의
전장
내용에
##방문
##보드
노력하고
리얼
앱을
정신을
초대형
14개
법을
확신
금액은
중대한
모인
세력
전일대비
소극
##자로서
크레
장난
문서
현대모비스
화상
##atch
최대주주
협력업체
폭로
민정수석
On
##부진
정치를
김일
이며
제휴를
다행히
##티나
여건
호텔에서
꿈꾸
##개정
##내셔널
거절
##나타
문제도
반발하고
제기된
보전
신발
군수
5만원
마음에
레이저
소리를
시에
증대
리콜
목표주
##형의
##oin
신생
##라며
제재를
##추지
프로모션
장치
형식으로
진행한다고
플라스틱
안전하게
관련이
벌이는
##제재
##셀러
도입해
나라의
인문
늘면서
않겠다는
1000만원
중시
##위원회와
오페라
고위급
사회를
수익률이
##역은
한계
부진한
리그
않으
복수
##의가
17개
##위권
복잡한
과정이
경기회복
영향력을
뉴욕증
##조에
국민적
##een
##중소
진술을
정확하게
tw
##겁게
여성을
##렉션
일으킨
가면
30만
##ics
브랜드로
원활한
기본적으로
##백을
한도
NEWS1
##롯데
자기자본
물론이고
안녕
기지
조기에
기사를
활약
정상적인
영등포구
흥미
단위로
##ish
지음
지급한다
야당의
##우가
속에서도
##경원
플라
좋을
##ose
창조경제
초고속
4월부터
조사할
AS
##산업은
CS
##가구로
팔레
##효과가
3시간
발언은
정진
##어지고
상봉
정세균
장기적으로
멀리
그렇다
3㎡
과열
보낼
new
울릉
애로
굳이
병원을
##케미칼
##세력
다음주
광범위
우한
탄탄
Sh
##86
들여다
##더스
교과서
공동주택
다르게
##하셨
2022년
종합적으로
놓은
시일
##조정을
조건으로
112
펼쳐진다
##교과
청정
En
이용객
생태계
경로
임대주택
##메이
보호를
지도부
##수당
##IG
크루즈
##기간에
##니스트
##증후
##토지
##역의
업체에
##지출
##코올
지배구조
인쇄
##현실
자외
##체제를
희망하는
청사
챙겨
4배
최장
##베이스
김광
최적의
응용
##분과
2명을
영토
도입한
유진
주변의
식량
사업장
나라를
자유무역협정
all
추진을
환급
무엇을
만나는
근절
##카페
##트리온
##외과
지난해에는
베네
남북정상회담
연중
제이
증가에
날아
##해줄
챙긴
삭감
폭이
사로잡
쟁점
들은
확실히
불량
급식
내일신문
분위기다
##자고
선거구
수익률은
권영
실시해
인플레이션
##산은
##산에
늘릴
성북
방문하는
면세점
시카
역설
성범죄
진학
중진
말부터
시중은행
막판
105
비서실
미용
##그래
국가정보
전해졌습니다
WSJ
극심한
담았다
취지로
태어난
##기준을
vs
기념촬영
##영상을
20개
##able
민주노동
이어지
##광역시
청문회
트레이
##심판
acc
##치며
마땅
##솔루션
물량을
보여준
##만으로도
박재
소재로
rep
##이익을
증인
선언했다
헤드
##전선
사태로
##AC
진행되며
남긴
10억
꺼내
테이블
농식품
##국적
거점
##에서다
과반
구입할
소음
가벼운
리비아
##회장은
박진
이해할
헤지
노벨
가능하도록
국무부
##하기가
개발과
산책
전문가들이
제출했다
콜라
심상
원인으로
신영
아기
개소
제안한
척추
상당수
체계를
##비에
확정된
시스템이
고려한
둘러싸고
최상
##6천
효과적인
##하락
##렉스
받으며
50만
신기술
적어
이후에는
되길
다채로운
스페셜
최우선
##48
##노동조합
편리하게
재학생
중형
사항을
##진출
금품
##LL
파키스탄
거대
##벨트
##양의
##베스트
##당국의
고무
빈곤
검토할
##취업
선거운동
일부는
안전사고
갑작
오브
낙동강
늘리
성과가
그걸
분석하고
김희
한방
저자는
500만
합법
##여야
마이크로소프트
지내
것이었다
##사히
##분쟁
##양이
##자에게는
홈페이지에서
강조하고
논란에
신성장
현지에서
자치단체
인제
잃은
데일리
이르기까지
다이어트
올레
승용
아이들의
방식이다
수감
##어의
제공하기
미국산
이에따라
아래로
##켰다
후에는
서비스에
차관은
하겠다는
PM
일대에서
##사한
치료제
##이동
곳도
오고
192
##플래
모르겠다
유학생
##이게
반전
소장은
재보
기능성
금융감독원
설문조사
배임
뜻이다
음악을
이현
파손
납입
##변경
지혜
일방적으로
시키
##소비자
후보자가
##청을
찾아가는
젊은이
84㎡
##회원
목사
##총회에서
단계적으로
리조트
넘어선
Con
LS
웨이
아메
##미는
취하고
str
고개를
승리를
AM
힘들다
거제
브로
감각
금액을
##고의
##oy
마포구
양호한
권리를
공제
있었는데
##돌이
##단위
##저우
##베이터
##임에도
CB
IPTV
파라
혐의가
##작을
구름
추세다
공급을
##마블
##노이
원금
달할
공수
한전
##통이
억울
목표주가
##자리에
호소했다
##더라
든다
##밸리
국감
내놓을
액션
처방
마침
덧붙였습니다
##절차를
인터넷을
시점에
금리는
경부
##축구
government
##팀장
신조
출전
##로서의
확보했다
금감원은
맺은
##동력
##심은
스케
inv
##yst
체계적인
법원의
조류
기본적인
KTF
상반기에
미친
말도
방영
커뮤니케이션
아파트는
pre
골든
채워
민감
법원에
제도가
제2의
걸림
프로그램이
줄기세포
레저
군사적
견제
박스
##님은
중부지방
##데스
사용을
도요타
체제를
안고
씨티
이해찬
이끌고
않기로
인수를
##DR
일일
##두로
시흥
측면이
##저히
고스란히
##물류
울산시
상승에
운영해
개혁을
##셔츠
흥행
마이크
색깔
우세
가난
미사
##av
##화장
##성장을
발을
해지
셀트리온
##히지
날이
##바닥
상인
활동이
선물을
못하게
주차장
의학
환경에
일본과
제안을
예방을
주목할
##강화
##스트라
아리
맡았다
토론회
면에서
EMAIL★
독려
본사에서
##다니
been
##신당
은평
##old
세계의
상품으로
반해
딜러
못하면
##선진
##78
그렇다고
죽음
웅진
##추천
구축해
구성된다
배경으로
전주시
더욱이
주소
숨졌다
3학년
다양하게
만화
##조가
불출
결산
거기
상품권
##자나
재확인
펼칠
경제정책
##위원장의
전진
가계부채
경호
고객은
취할
##조사에
상주
몇몇
조정을
타입
##68
##컨설팅
끈다
##ens
장외
밀접
##4억원
외국인과
거리를
비자금
시민이
매진
공사가
##촉진
during
금연
불확실성이
정성
모스크
이들에게
나란히
##였다고
아니었다
##95
##센서
##대체
이사는
##개입
##conom
##가기
광산
이재용
하나다
엔씨
브렉
퇴근
##훼손
##영향
페이지
이산가족
상해
업종별로는
사랑하는
시속
장려
전제
MP
DNA
상처를
결심
##지방경찰청
특별법
아나
##체는
기간은
각광
할지
개최되는
##퍼니
봉사활동을
판결이
이틀째
주장에
3단계
##기상
##옵션
태안
##비리
저희가
장수
##8천
축적
##이한
##교를
금융시장
FRB
구리
적용된다
##더라고
실수요
중독
관리가
박람회
확인하는
##이면서
##차에
방침입니다
못했던
들어와
공식적으로
활성화에
기술로
감사의
보도했습니다
나은
##어스
다름
##냐는
공직선거
단호
증상
It
##기업을
##AN
200만
##북부
자세히
##국과
##혈압
종업
투표를
사용하지
불과한
증설
fin
출품
남측
##포털
다리
특성상
증시의
보냈
그들은
대검
않는다고
##피언
##테일
##내외
LG디스플레이
가정의
한인
##회사를
##주지
한나라당이
##기업인
##들께
분석도
##대회에서
양보
A씨의
우유
총무
현상을
##수행
외교통상
통합진보
개선될
준비가
사태에
농어촌
사건으로
이상은
ECB
노동조합
고지
##출산
여전
주목받고
3위
신당
박용
관계자들은
##프가
경향이
지경
국제적
##7천
장거리
##비드
동해안
나빠
ind
창당
발족
숨지고
##우며
철학
##The
##엔지니어링
비록
가축
##종으로
엔터테인먼트
정동영
해병
소지
##채용
기사입니다
중에서도
시점에서
투자할
생계
증가해
##차의
##목표
##변호
구는
##물가
과감
찬반
막고
비만
주춤
##own
의지
참여한다
##olog
재계
절약
세계를
회피
##공천
##ound
불필요한
푸른
공소
##발생
##면세
다음과
설치하고
한라
넘치는
꼬집었다
법령
당정
이색
평범
##이었으나
관련해서
효율적으로
후보자의
것임을
60대
저도
##소연
과제를
450
쏠리고
각국의
참모
app
매니저
선원
기대가
동아시아
세우고
중이던
파악됐다
가족의
직원을
##부양
투자심
동화
의견도
당기순이익은
휘발유
피로
Fr
논술
이코노미
##ely
실질적으로
방문을
교육과정
##자연
신한은행
##플라
##장에게
경쟁력이
2004
개정안은
확보에
무엇이
##담을
아모
스프
미래창조
FI
##방법
서식
옆에
버튼
지난해에
유류
상의
##토리
선정한
##일본
박정희
김창
만만치
시티
비전을
꾸며
귀가
일도
자사의
국영
점검하고
##정원
##호에
사임
쉽고
유세
스토리
두바이
연방준비제도
환경이
손해를
마찬가지다
연평
자사주
독일의
1조원
##상거래
##브라
유감
##기업으로
최근의
##커스
오름세를
##관리에
근무하는
##etween
평화와
죄송
때문이라고
아이패
업무협약
힘들어
전체적으로
수상한
분이
##음식
900
최고위원은
웃음
수준에서
##ater
위험한
사실이다
기간보다
MBN
바른정당
바이어
수업을
##카드를
sc
기술은
##과도
##사도
막는
다룬
충주
ar
개최한
불리
##발전을
##면허
저질
선언한
##했다며
법사
업무에
##크는
Kim
구형
한의
##없다
first
씨에
밝힐
영화를
##산업이
시신
20분
##키아
청취
송금
##욕을
203
사업이다
우위를
##row
##대표는
연면적
imp
오세
시험을
000원
반영된
야당이
덜어
나면
출제
군인
실리콘
수출은
##보며
유선
잃어
우려했다
베를린
##67
중산
받았습니다
주상
##등이
IPO
##서부
##전략을
##총괄
정도는
발탁
5억
전망도
일본을
##보로
고대
##방에서
위해서다
참조
김인
깨한
휴게
났다
4층
중앙은행
늘어났
##산업을
즐겨
하위
##견을
커졌다
뮤직
김씨
between
##업체를
소감을
플랫폼을
부산의
##전철
FOMC
다니는
##병원은
근접
##점수
개정을
##난을
##개에
##해져
국토부는
사모펀드
판매하고
##퇴근
업무협약을
##시다
##터는
1995년
운수
석방
사육
결정하는
대법관
1번
답답
박지
시작되는
시작하는
나라가
퇴출
주총
여론이
2021년
##pos
저금리
구축하고
잇달아
재선
전남도
특별히
없으면
##플루엔
##해서는
대입
김준
대하여
강화에
##낙연
급격한
전환을
##ook
평화의
자아
##센터와
긴축
##협회가
침입
개발이
##ok
360
김연
당이
보고서에서
##모닝
##미한
명확히
여지가
있었다는
싸움
##컴퓨터
하도록
크림
팔레스타
##회사가
트래
남쪽
이한
모래
구속기소
##기관으로
부당한
움직이는
주택을
처벌을
##세서
김문
##위생
증가세를
교육부는
##줄이
##코드
높인
밝은
##대금
##분으로
남성은
two
##자재
한국전력
##련의
몰래
기여한
배가
양천
2∼
감사를
나섰습니다
인터뷰를
사람과
카지노
기준에
보니까
중지
##침을
달간
##용지
국민과
##코스
##자다
교역
선대
지키는
셋째
절차에
시연
주재로
애플의
아들이
who
##정기
원인은
메신저
News1
5∼
벌일
용산구
진압
국책
세일
민자
##사단
요청한
##구성
6조
##oon
준비했다
##권에서
안보리
ES
면허
사용이
산은
아름다
##어린이
##병이
##사채
하반기에
##병원에서
전통시장
쌍용차
위치를
##이었고
조선중앙
##즈가
##인민
RO
##보디아
Wor
치유
역할이
있으므로
확진자는
##르몬
고양시
방식이
##커피
재산을
WHO
##연료
또다른
업체를
7만
##하기를
상실
신사
기술적
고부가
유학
허브
세계에
일정으로
절차가
rel
패배
광장
싱글
##업자
##ates
##콜릿
##인구
이외에
자랑하는
자신감을
유치를
들어간다
비춰
작곡
after
미래창조과학
투어
9월부터
##공식
떨어지고
등재
규제가
증액
##슬러
월세
##EX
차이나
파는
##투스
##할인
##만5천
인구가
날짜
##커뮤니
##해수
출구
##경쟁력
개인은
이루고
보험사
PE
화가
기준금리를
##생물
사장을
소개하고
민간인
아카데미
##주들이
we
##파워
사옥
##브리핑
연구위원은
##색이
##조는
떨어뜨
대비한
##ON
##53
이용하면
##졌기
조치로
처리할
##OP
증상을
개최된
의미다
추징
컨트롤
소아
##카메라
피할
##까지의
발매
학교를
##책이
##프리카
##lect
마스터
학과
많을
##문은
TV를
벗어
상태에
일원
역학
지위를
엔화
장점이
##훈련을
체중
##뱅킹
한상
비닐
판문점
##라리
##라비아
차량에
##심사를
신작
이노
reg
##중독
반납
한경
환자를
위의
부회장이
마포
3백
101
차질이
도주
##나게
이창
지속되고
##가루
달러로
들어온
탁월한
불편한
필요로
##46
쾌적한
공을
키우는
대강
인재를
##AE
##72
##대구
##년을
연계한
sec
##게이션
모델이
네이
##거리가
##았는데
중남
##CI
유산
재임
2대
자료사진
석유화학
동탄
모양새
프로그램에
정부도
불투명
보령
거리에
악용
계획에
과목
안으로
엔씨소프트
게이트
WTO
방지를
##되는데
하루에
인원
코레일
작가의
##해준다
펼쳤다
경희
해주는
자본시장
관광객이
CG
미루
영구
이낙연
의혹과
##주석
의원에
커플
부통령
##lob
아르바이트
신속히
##민이
##업의
판매량이
##퍼시픽
##비용을
상원의
##습을
수료
3㎡당
업계는
본부장
왼쪽부터
240
브랜드의
수산물
부산지역
##TC
##세종
##업체들의
의사가
너무나
그들이
인근에서
붙어
사진이
남용
##위원장과
해당한다
##패션
여가
산업단지
개최하고
유흥
##도서
300만
정리해
##시즌
과시
판단해
##ier
판단에
본질
치명
매수세가
이해를
지시했다
##친화
준비한
출발해
##동원
##50원
0시
##부부
##이와
판매량
유보
핵심은
자립
##대원
제조사
붙여
최다
강화하기
단일화
##여건
짓는
가입한
##터가
##권으로
약물
줄을
DM
필요성이
##단속
대덕
수성
받으
##2일
교수와
우리에게
오늘날
EPA
아이들
초부터
몸이
##억달러를
##확대
##종은
조속한
김윤
시카고
##교실
핀테크
근거가
국악
김유
포천
출고
요청을
온실가스
쓰지
월스트리트저널
##란을
주최로
빨간
pol
날을
나서야
양양
가칭
끝나는
위상을
위하여
공급할
감수
Ar
보며
처럼
부장검사
정책과
건물을
성적을
박준
대학원
통증
증가했다고
##에다
사무총장
국제사회의
노르
##AR
이벤트는
일부가
장식
선택한
##원자력
가끔
사용자가
그건
보이면서
폴리
양재
##57
##47
할아버
이곳에서
##째를
##술을
터널
양식
신청하면
##밴드
군이
김은
서비스로
협회
차별화
회생
##작전
양해각서
1의
##치와
외국어
불가능한
총력을
##티스트
바꾼
서둘러
##ory
수출을
중이라고
##동욱
경쟁률을
##기인
밑돌
포상
조사는
기숙
##규칙
이순
##손실
220
봉쇄
##버리
현물
##공유
김주
##42
지니
##음료
##우지
##라이프
##eop
해수욕
유병
이어진다
수수료를
한국거래
##가인
##릭스
체험할
판매한
진상규
##단에서
BO
##님을
각자
수록
빼돌
살리기
##공모
보시
##받는다
##내지
##번호를
중점을
108
##상업
달러화
혁명
스파
다중
점수는
넷마블
##산과
사회가
전자상거래
대전시
평화를
감당
투신
고사
도시재생
전체가
언론의
그림을
높을
사장의
총기
채널을
내보
차지한
##LG
증진
느끼고
주장한
##임이
타이틀
##aeil
경북도
김혜
##치면서
하기로
진지
업체들의
패러다
##물량
검토해
##법안
받으면
##인천
공론
머무
않는다면
각계
로마
산출
##ities
권익
##00만원의
4000
일회
나경원
동영상을
쇄신
##ug
부도
살아남
문제다
까다
##관계자는
전보다
##경남
##여름
전략이다
##분할
기아차는
존경
생산을
##시설과
영월
분야는
민사
행사로
전문의
##다란
재편
부드러운
밖에도
위원회
mon
##만원에서
모스크바
##드리
##사업과
but
운영된다
판단하고
긴밀한
달해
음식점
##용량
자부
등록금
##이야
##56
정해진
##학술
러시아의
참배
키움
이듬
##윤리
민영
##신청을
##디지털
##받게
##서에서
대우증권
오사
##학과를
문화체육관광부
골라
자가격
협상에
메시지
등장하는
##ock
지키고
겨우
사교육
전달할
확대되고
6명
##강도
동의를
##Copyright
하도급
광장에서
##교환
레벨
자회사인
##hed
##00억
대다수
인프라를
문건
##두를
다를
##투자를
정하고
장학금
##규모는
아이들을
영역을
특허를
##홀딩스
##ite
입소
손잡고
살균
##ha
규칙
학교에서
선택을
삼성그룹
끊이지
가처분
네티즌들은
집안
건강에
주한미군
여행객
페이스북에
##호흡
CF
임종
한국형
##되게
##희망
우체
프로그램으로
국고채
##으로서의
주의가
진출한
받았고
Naeil
시장에서는
영원
##지하
ⓒThe
##ited
##수정
보인다고
그녀는
총파
거기에
##트와
우리나라가
사무총장은
##응답
market
위에서
소모
##시설에
가결
학계
협의해
##기관을
총리와
진흥
##만기
이듬해
압력을
##렬한
심의를
스킨
##진구
얼음
납세
##00원에
##텍스
인사가
지원과
나옵니다
혁신적인
##나와
##lobal
##하길
담합
최선의
##어질
##철을
대표로
입체
상표
워터
이와함께
무게를
미래의
완벽한
충당
요구가
##mit
##의약품안전
자리가
주장이다
##공사를
국토교통부
업계에서는
판사는
선점
##ince
일상생활
민선
먹거리
행운
자녀를
##iss
갔다
관료
등록을
이겨
자산을
변신
성수
##해진다
동반성장
퇴임
##ES
다해
피부를
수익성이
##금리는
제1회
##중개
공유하고
15일까지
세계경제
결승
위원장을
혼합
거둔
PER
크다는
고성능
성균
##공사의
일축
고등학생
똑같은
##변동
전제로
서산
타격
돌아섰다
편리한
##공원에서
##63
주무
##고도
만료
설립을
경과
월요일
##가에서
##봤습니다
환매
피해자가
##겁다
##들인
인건비
한쪽
삼성SDI
유방
##렸지만
##GM
이완
Copyrightⓒ
##일으
최첨단
거리가
##세이
기록했고
외곽
동계올림픽
대학에
합의에
##평가를
##마일
일일이
##포지엄
사업과
기대감을
적용되는
소통을
offic
재미를
##보다도
신고가
생성
##발이
##58
작품은
모두발언
취약한
클릭
they
당신
계획은
대안을
힐링
미달
##수수료
##시켜야
제시하고
해상에서
##iness
게이머
공간으로
2020년까지
총선을
이어가
물건
권장
노조가
맛이
##동부
연쇄
세이
태어나
##중학교
국외
개원
##건전
대응하기
모습으로
##겨진
더불어민주
투자한
손으로
수입차
것인데
3회
한계를
##파를
##매도
배터
##pr
중국산
2학년
##였으며
##렸다는
윤석
##공간을
공정위는
건설을
8만
만든다
고혈압
모집한다
촉발
자체적으로
배경을
##오늘
학생은
순차적으로
신경을
골프장
조치는
오일
당국자는
1박
총회
받아들일
##하였고
휴식
의장이
생겼
##타르
중남미
입지를
##센터의
형식
듣는
변호인
can
##졌을
달에
진전
제품과
가담
산업혁명
##PP
109
##결과를
자산관리
봐도
제한적
##시험을
시대가
정시
하이닉스
5명이
표현을
포스트
3명을
100억원
화해
##온라인
##찰을
업체들은
주도한
정권이
다음으로
##주교
간담회에서
##항에
보류
그중
##업체와
8개월
시행하고
##유공
1위에
몰고
##폰을
차원
꼼꼼히
세균
후에도
결성
지고
##모바일
##더라고요
발열
그날
상용화
은행이
골드만
고구
팀장
1996년
##통계
뉴스투데이
내세워
농림축산
##재단은
##기능을
마련에
소재를
부풀
어두
수익이
##값은
재무구조
기자간담회를
##진영
4시간
일반인
##마련
최재
출퇴근
##43
단속을
많다는
김도
##지사는
공존
케이스
국민들에게
됐고
문화가
피해는
##eople
사례는
##곡동
##티드
전략이
서울을
올랐고
##이사회
one
##실태
아끼지
##리안
얻는
조업
차례로
파일
마사
##매입
정부서울
##맞이
시간당
박수
##룸에서
공격적인
밝히지
##부문의
성남시
작가는
##화물
적용된
차량의
부평
그러다
게임의
공약을
개발하는
일어날
##티스
시한
정보화
꾸려
목소리도
공동체
소방당국은
##5백
상승하고
대부분은
냉동
피부에
명의로
##나들
후보에
초콜릿
유독
양육
주민의
아우디
##참모
3일간
만났다
발언이
파급
##버드
리스트
##과대학
시선을
##치인
이익이
구제금융
국장
한가
상하
정당한
거뒀다
신상
##ystem
탐방
늘어나면서
출시할
식사를
타협
##상한
기념촬영을
##보합
오해
##항만
시민들은
보도입니다
명문
거래량
##최근
재원
##해지
##치면
일대에
순익
무렵
새만
국장은
칠레
현대증권
재래
권역
##클래
남부지방
##라가
개표
##했다면
##경험
성장에
할인된
걸리는
하드웨어
월평균
##어지는
김현정
거리두
아직은
생명을
##AA
오스트
##래도
개최를
불만
참석한다
대사관
강의를
시민들에게
MC
보고를
도착한
##분은
##돈을
##누리
임대료
양측
##중계
백두
직원들은
주도하는
##그리
성희
국가대표
18개
전과
부자
지적에
##리얼
##밖에도
##민주화
불러일으
incl
아일랜드
하반기부터
접어들
파기
월간
간편하게
문화관광
##전화를
줬다
상품이
##으니까
대박
그렇습니다
대면
수단
라이온
##대병원
포인트를
냉장고
나쁘
비용은
##엑스포
항암
소개하는
##년이
할부
넣고
##등의
온도
##법률
중학생
##러스터
높다고
선거법
당신의
##변을
##52
곤란
##포스트
NEWS1을
##기에는
줄고
기후변화
##살이
사진제공
##네스코
설명회
종종
##년의
신청했다
완성차
코스피는
농축
장기적인
##동아
좋고
당진
##ents
##인상
맞물려
문자메시
act
과제로
제1차
##막이
아이템을
재정적
사면
##팅을
특성화
##골프
##데스크
도청
에버
돕고
징수
폼페이
가량의
##연은
약한
65세
식품의약품안전
업무보고
라면
정전
##강의
지적을
집으로
정면
CM
주장은
##문과
잡을
qu
기술의
행보를
상품의
해산
최근까지
양질의
왕복
도매
##보전
서해안
##업계가
지디
연상
이건희
확대와
활동하고
지키기
피력
건수는
증시에
달라진
이뤄져야
무안
김홍
last
##배에
마이클
##았을
##티지
우정
현장의
1년에
은폐
김씨가
효율성을
맡게
빚을
웨딩
##운송
헌혈
역사의
상황입니다
노란
시장과
노숙
전달하는
약화
FC
해석된다
##군사
어렵고
발언에
잡는
난방
##시간에
서울에
##장학
4억
엄격한
미주
행안
가능하다는
창출을
합리적
##거리는
회의에
IBM
걸로
시그
##롭고
##급적
5백
경제지표
아웃도어
안을
점검을
희귀
언론이
보고서에
##41
성희롱
퇴진
나눈
알레
국정감사
자세를
##경비
##드립니다
입장에
##터널
##타이
특례
의무화
cons
정경
인수합병
were
가까워
##만원이다
대우건설
총수
##미애
전달하고
것이기
있나
가능하고
일본군
브라운
아이의
깔끔
금융회사
의미로
##9억원
업황
실시된
삼고
최소한의
전력을
안전관리
내용과
성균관
화재가
국회는
21세기
상처
청와대의
확인되지
##체와
공모전
서서히
##사업부
진실을
##reat
부지에
가족을
화제다
##까지만
인정하고
##학부
만들어야
##ower
효능
than
##벤처기업
지인
전년동기대비
##ternational
늦은
인디
탈모
커다란
일정이
외출
것들이
정신적
공단
고민을
명예훼손
##등에
이보다
부친
열악한
6월부터
땅을
됐다는
결정은
공정위
현실적으로
인정받아
##했는데요
##희정
감자
19대
지방세
살해한
##ix
모토
참석할
파트너십
공간이
벨기에
##답게
##지정
재배포
수행할
주의를
제7
불거진
원칙에
돌아온
고생
화천
##문화예술
웃도는
애플이
국가를
20일까지
졸업생
실적에
박씨는
점거
공개할
##루미
##인원
토론을
##자유구역
아이스
홍천
직원의
판단이
230
나누는
JP
An
언론은
감사원
지도자
걸맞
##일자리
이벤트도
사물인터넷
앞세워
바라보는
##앤젤
DS
단원
##만㎡
좀더
압축
유네스코
점진
인사말을
가릭
##공단은
입맛
인사들이
회원들이
소득이
불합
협정
##지휘
솔직
처음부터
매력을
##위반
커진
5월부터
##대사관
현대상
찍어
공안
밖의
복무
주된
응답자의
일본인
조경
##접촉
무리한
##발의
추궁
협력사
모습은
##증후군
1주
히트
##농단
궁극
불꽃
효과는
##하시는
전락
성분이
제도적
실종자
##씨에
이슈가
모른
##FTA
##극장
##어와
당당
상승으로
평범한
적용하는
##m로
가방
김천
신분으로
##orts
##cer
민중
##usiness
엑스포
민관
자꾸
집중되고
순회
본회의에서
50만원
앞바다
##io
##파의
아파트가
우려된다
##정밀
영향은
여의
명확한
물가상승
과장은
부결
시계
강서구
토크
임무
휴양
자격증
##박물
실질적
##가전
폼페이오
마련된다
삼성의
형제
간주
##압의
있고요
헌신
발레
정재
촛불집
위기가
차명
지디넷
##ning
주상복합
수원시
비대면
소비자들에게
맥락
고집
순이익은
econom
상임위
1000만
자라
종목에
SO
멀티미디어
##ices
대회의실에서
4년간
1500
##민들의
맞았다
과태료
눈높
전쟁을
##동계올림픽
##gr
##협동조합
이재명
##걸음
##air
시행할
##교부
확정했다
##해지면서
기아자동차
신재생에너지
##지사가
##투자는
제치고
##와이
결과로
그칠
역동
재외
보도가
외환위기
회복을
##실업
##마토
##시킨다
벌어졌다
완전한
변화와
국내에서는
##개념
겪은
의정
않겠
출시했다고
상승할
헬기
1994년
서비스의
##협력을
당뇨병
##억달러로
달성했다
조립
화제를
산업은행
어린이들이
엑스
체결하고
인수한
##동으로
간다
##아의
관계부처
명에
UAE
##유입
무제한
처한
유기농
헬스케어
전망하고
누리꾼들은
졸업한
최경환
톡톡
##스타일
단장
하겠습니다
##연구소는
오늘도
예술의
나오면서
##차게
서양
am
고전
##폭은
거시
##규모가
침묵
객실
128
폐기물
##인수
시급한
대신증권
표기
로버트
건전한
단지는
많습니다
희생자
아파트의
##매체
2007
로스앤젤
10억원
투자자들은
된다면
매립
폭스바겐
##정책에
심어
##98
죽은
오락
China
시신을
##디스크
구제역
골드만삭
하수
없던
##해보
여건이
해소를
매출액이
청장은
빛을
##폐기
역외
비치
미래통합당
악재
한명
아모레
##점인
카운
티셔츠
부산시는
##머리
힘쓰
그쳤
단백질
고립
##격으로
혐의도
LPG
7명
부재
태도
배추
여학생
추세를
##냈습니다
되풀이
한동안
소개한다
형평
여성들이
의무를
선보여
지붕
##석에
개정안이
그저
삼성은
7조
강력하게
알코올
빠졌다
주어진다
리스
##있고
##ams
하한
공주
ev
핵무
보금
확보하기
기탁
##하실
실어
신천지
2위를
통과한
지지율이
사무처
보도를
##률도
캐주얼
cr
5000만원
하락을
회의실에서
야기
교육과학기술
브렉시트
적대
한복
DJ
과거의
HS
놓여
##함은
##T는
블라
사정이
후퇴
들어설
정기적으로
경제는
용이
눈물을
##기만
##예고
##보육
##치다
연안
CI
IBK
##ord
폐렴
증폭
판사
교수를
기자간담회에서
한진해운
갤럭시노트
건네
덴마크
있거나
권위
##fer
빚고
오래된
##론은
여야는
##블리
##쇼핑몰
##매각
##해상
전망치를
권유
바쁜
10월부터
##란시스
##오면서
##리라
나타내
##비행
랜드
이어지면서
자신에게
열람
300만원
##든가
마르
일정한
푸드
넓혀
만이다
모르고
강조하는
오지
A씨를
정보보호
평가하고
장면을
마련하는
적발된
구성원
환경에서
##성향
##공사와
풍경
텍사스
인류
정치자금
폭을
자금조달
##셨다
행진
##기업은
개발된
되기를
그야말로
학생을
##테스트
아니며
이대
KAIST
##두환
해피
##소통
신고했다
불만이
##만주
자존
자격을
구성을
시간과
줄어드는
결과적으로
##연계
치안
독거
신입생
##주시는
논리
파병
부산에서
##3일
##RO
유력한
명단을
기소됐다
회전
교육청
잡지
내비게이션
내용이다
고추
##심리
##였다는
신안
##테이
기울이고
예수
102
##됐는데
속출
남성의
대조
##우로
만났
##주의보가
대검찰
##림이
설치한
##고속
##벌이
컨퍼런스
400여
벗어나지
음반
작품이
그렇지만
수용할
##헬스
인명피해
조문
##사회복지
않습니까
##플루엔자
코스닥시장
주민이
##CO
##그린
인종
##학의
##값을
못하도록
##형에
스피커
교통안전
계획하고
피아노
박모
마라톤
IR
##가리
철원
##글을
2심
##업무를
1990년대
##택시
스카
사죄
##국내
대기업의
소외계층
##스톱
##영은
노선을
1990년
당직
고창
차등
바람을
횡성
것이냐
미성
남산
전통적인
돌봄
선정돼
대성
조영
절도
직영
출발한
##시행
법안이
산업통상자원부
서울역
승부
없어서
3∼
사과를
서비스도
있죠
##이노베이션
EBS
지도부가
해가
2005
##자이
달성할
화장실
##거래가
육성을
판정
하겠다고
현수
이룰
지나친
위대한
교정
출발했다
비서관
미안
내용도
##조로
애플은
고액
늘었고
경기도는
최근에
He
BBC
아무도
교육과
참가자
##테크놀
오산
효율성
만하다
동호
열흘
나이가
새누리당이
권한대행
장점을
##간접
work
분야별
##저가
##있어
##임스
비자
설치를
건축물
보자
승무원
##사정
전에는
급증하고
부모님
주둔
지디넷코리아
반입
경기부양
야당은
아르티나
주저
##형태
제고를
한국투자증권
혼란을
사격
##P는
##셔서
장벽
대사는
총장이
교육의
모기지
컨벤션
시의회
##공을
생애
청와대와
We
지적하고
계곡
무죄를
이날부터
##up
미중
##스팅
말아야
시사했다
##방울
확보하는
살펴보고
정보는
##미국
표본
당을
잇따르고
계층
사퇴를
la
dec
Sp
예산은
홍삼
봉사활동
최고기온은
##1명
외모
받았던
조성해
확고
충남도
걸렸다
##방어
웰빙
경제부총리
어떨
##3명
하니
결정된
##상공회의소
20일부터
매각을
특화된
트랙
농림축산식품
메리츠
봤을
대통령도
##포터
제의
이산화
요구할
##래곤
조치에
##안내
태블릿PC
##수요가
컬렉션
##오일
##관절
##본부가
예의
소리가
공표
25개
##ital
##A는
피하기
돌파했다
시기가
##테크노
전셋
처음에는
##비율은
##세인
낮다
오디오
우리도
##대리
실버
주사
사진과
촬영한
다국적
##캠퍼스
착수했다
대학이
정서
##94
##ach
절실
생각했다
##선택
거래일보다
하원
뜻으로
경험과
들어오는
당대표
날인
이사회를
뽑아
자발적으로
##단장
인천국제공항
사장과
MD
요구하며
##피를
##실적을
비트코
분명한
구급
이밖에도
마련해야
##생명은
##작으로
자유를
어렵다고
##시절
KE
무엇인지
추진하기로
크기의
기록하는
보이스
전문성을
양평
녹음
##바라
보통주
대회는
지은
뒤인
떠나는
환수
##레저
##Hz
이강
때에는
##62
이철
참여정부
화폐
코엑스
환승
주최한
남미
15일부터
결과다
내려진
10일까지
##도시로
한나라당의
폴란드
match
양국의
출장
가상화폐
##일수록
강사
돼지고
끝으로
##87
##공학과
엄중
흐름이
느낌이
식의
무서
황우
거라고
##스피
학력
새만금
3인
가할
개선과
팔레스타인
얼어
정도에
텐데
교장
개발했다
염려
##두는
컨셉
키즈
자정
7개월
반포
official
철저하게
벤치
은행들이
##방역
##심과
인양
수단으로
##해수욕
합산
##단지를
대권
유대
모델은
민영화
신중한
##손해
행위가
온천
##82
정책은
##브리
상향조정
위반한
마비
40년
납득
World
진심으로
지냈다
판단된다
DMZ
##석은
##영향을
평일
##게이트
##업체로
점유율을
LG전자가
판매할
대내외
김세
국민건강
차트
이뤄져
폭의
##부지
##로봇
펀드는
채소
보도자료를
돌며
계승
반문
##전력
##콘서트
근대
신탁
한국시간
##곳으로
보충
출동한
금메달
양측은
자유로운
##영수
송치
##오던
##양성
행정자치
대상에서
커버
공연이
플랜트
체계적으로
##만원이
박병
학생과
##거래를
거둘
자세로
준비해
사우디아
계속되는
##IM
질을
여당이
편안한
혐의에
단독주택
있는가
임진
##I는
다자
번영
##작품
##여부를
시원한
로열
의료기기
포도
##는지를
환불
체제로
역사상
##우드
대선에서
Ind
김종인
가세
오토바이
나오면
##란시스코
전지
급증했다
핫뉴스
가입할
효성
출시한다고
장시간
##실천
적용했다
오사카
행위에
DV
##이니
화면을
##로와
##책임자
신흥국
하노이
##apan
##그라
##자동
서브
추미애
부르는
제한하는
10시부터
번에
미만의
1분
##으론
##3개
##령이
##ased
장례식
본회의를
한국토지
나들이
##가게
있겠지만
문체
접수된
한옥
학생의
남겼다
##빌리티
일로
밴드
등장한
초미
어플
대회를
언제나
##버스터
##번째로
발표가
여러가지
변수
감독의
어업
##임대주택
갈라
단체는
이렇다
##동은
수석대표
증가율
아무래도
금전
보상을
벌어지고
나가고
고장
트렌드
공유하는
##주자
##성적
지방의
##문으로
성장률이
양의
about
그러한
국제유
대두
산업을
당연한
여성가족
수입이
##업체들은
적극적
##동포
국정감사에서
해외시장
국제통화
전체적인
김원
부상을
제도다
##급을
이해하고
무척
참가하는
발표한다
신용평가
연구에
투자은행
물었다
한반도의
명령을
1순위
기장
되살
러브
거짓말
##발행
손실이
이희
좌파
뉴스를
공개적으로
##산업개발
이럴
만나볼
주식시장
소주
스톡
취지
##랑이
대명
이회
세련된
##지배
선교
졸업하고
서초동
##북한
효과도
말했다고
우리를
짓고
##오브
집중할
수직
구름이
몰랐
질문에는
종목을
다큐
취한
기득
여부와
살피
P500
##보좌
##하자고
중으로
아프간
##velop
인체
us
성장률을
대원
상원
##스레
북쪽
이곳에
부가가치
내면
글이
드라이브
제시하는
개최된다
##역량
생산성
속의
없었
맛과
르노삼성
115
적도
최후
##습기
음란
출범한
B2
2호
명백한
시설물
싱크
아티스트
신선한
##문서
요건을
##마당
거장
급변
계파
##시간은
관계자가
운반
참가자들은
일시적으로
바르
발표에
도시계획
터져
송환
국가에
##우위를
##특구
주파수
##지기도
비관
전복
##주에서
##ict
전교조
면밀히
직원은
시스템은
브레이
매물
개인과
쓰이는
배분
저해
반기문
발표하는
애국
##긴다
보석
정상적으로
드리
##해주고
##pl
주민들에게
바다의
125
바람직하다
해변
중국어
생각에
중화
수석은
지지하는
28일까지
지역과
191
잠을
성실
현실화
차장
##000명
감독은
##조원을
##런트
논의하고
박희
Japan
서비스업
이용자가
논평을
가능하게
한데
저작권자
##미술관
생각은
상품이다
##ays
견해를
보선거
재학
##으로의
##케스트라
##등한
삼성이
격차가
상승세가
한국은행이
##타를
없다며
지식재산
구입한
전달한
##ath
##구조를
경영을
강화했다
##협상을
##ron
내세운
산악
직원들에게
헤지펀드
##드럽
나머지는
주최하고
무난
대주
하회
상품에
로스쿨
##소송을
비난을
믿을
선수가
의료기관
##침해
나타났다고
삼성중공업
석사
해결하는
일할
중요하다고
사이트를
##돼지
민주노동당
차례에
간소
##ublic
##제일제
줄줄이
##십시오
두는
##9천
불가능하다
소멸
에너지를
넘기
일자리가
금리인상
증거를
등록된
##네이버
기회로
##회의는
현안에
##나가는
##아는
##echn
##링크
탄력을
hel
##채무
##플레
고용노동부
부장은
입금
마트
##형과
##ise
##억원에서
동월
##신문은
스트레스를
기저
대구경북
시작된다
분주
##기정
##병원에
##오스
공기청
##강을
압수
##업체는
미지수
열대
메이크업
##정동
자이
저출산
않으면서
3G
부드럽
관리할
대응에
##환경이
B씨는
114
중소기업이
##티는
서류를
제6
기업이다
한국관광
하는지
##로워
개인투자
충북도
##펀드는
##스러워
지주회사
##출판
최고위원회의에서
전무는
입었다
개최할
##호영
로또
양상
단계에
##커뮤니케이션
##수산물
목표주가를
man
적게
활발히
태스크
성별
부부가
데이비드
금통
아모레퍼시픽
코드
##m의
문의하면
추진된다
국어
시켜
계약이
표면
##황을
실습
##비율이
##곳은
유무
한국노총
독재
##섬유
핵무기
내려가
변동성이
time
예매
대단히
이용이
##문제에
##1일부터
노래를
##단체가
롯데그룹
휴가를
활력을
수위를
위원장과
활발하게
prod
##어링
서비스와
대통합
조계
##공사에
장남
소비자에게
김석
지원했다
아이스크
##만9천
##청년
하나를
배를
##내야
대표이사는
한두
부유
이식
##6명
##비한
##렉트
의견은
조선일보
동향을
##세상
##문화재단
대강당에서
##러블
일하고
브랜드가
두께
##열을
##스톤
##장한
자외선
##박람
##만으로는
듀얼
후유
종류의
알바
통합진보당
공보
##대상은
Fed
##사고가
추진한
##장이나
정치권의
장이
##회의가
고마
치료가
Ex
데려
##고시
잡기
만전을
냉각
##ember
금년
##모금
아이돌
##대책본부
billion
지시를
나가야
진단을
과징금
VIP
박찬
매뉴얼
여론을
##여명
결렬
가족들이
가깝다
이득
무대를
##쾌한
양적완화
키우
세우
##드림
투자자의
상승이
김씨의
##설에
기관과
중의
##수리
부작용이
아나운
##니스탄
##ating
##부도
결정될
줄어들고
기능도
구조조정을
##코는
매력적인
달콤
하나은행
month
파악할
##남용
알려지면서
대선을
산학협력
탑재한
기분
##arg
그레이
invest
3주
설치할
무분
##상호
양쪽
방과
##방은
만들겠다
##솔린
##처에
자랑한다
##거를
위임
핑크
##SK
오렌
##상인
##하듯
없지
모레
전망에
##정책의
##수단
other
국제금융
##베르
관건
##밀한
적폐
##것도
사라진
가계대출
드러났습니다
##사업본부
시설이
않느냐
##ific
시내버스
사업계획
제임스
승강
##아지
있겠다
등기
유한
##소유
각별한
목표는
##에게서
줄곧
쿠바
##만원대
구매한
민속
국도
인스타
Br
##파는
8명
내림
럭셔
나지
갤러리
##영리
##행위에
가급적
##으려
차량은
##ef
##일반
대법원은
주가에
취재기자
팬택
있어도
박기
백지
약속한
고심
##먹는
거다
검정
##양은
고래
노조의
##ind
심재
지나면
선거가
노력해
후진
##단체장
정읍
##투표를
이것을
드물
##ious
심포지엄
계열사인
가져올
연예인
대부분을
##방식을
터뜨
건국
박탈
낮게
##공동체
##록을
도로를
우선협상
도의
통합을
##미로
나고
##대변인은
##프란시스코
##ward
주최하는
양이
##부상
##증명
##ㆍ4
장기화
성장한
##암동
과감한
중에서는
지적했습니다
도봉
방식은
종부
1학년
끝나면
역임했다
등교
이루는
불고
레이더
해남
##론에
##7명
눈앞
실력을
제작된
성장과
3명의
high
##6개
불가피한
구속된
열풍
해온
방문할
간판
학교가
신촌
미국인
대한민국을
부문은
착한
##있던
묻자
100명
지갑
역사와
급속히
알지
##공인
##브로드
주장도
##팩트
개최하는
국제통화기금
미혼
조사해
##eek
소나
##에요
다이아
겪었다
번도
써야
자구
해외에
소비가
쌓여
암호화폐
등장했다
##수산식품
넘은
기상청
간사
깨고
하락하고
학업
##수익률
아이들은
국가와
##회사에
##차와
내부의
조직개편
제작해
인삼
##나노
4인
##증은
##하를
없다면
평가하는
돈으로
청계천
변수가
의원에게
기구
있기를
지는
국정조사
사외이사
달러의
명으로
지원사업
##추어
사정
매몰
의미하는
5도
디자인과
210
공장에서
104
##마의
해소하기
다짐했다
구매하는
해설
로스앤젤레스
people
악영향을
##공장을
왜냐
##상가
우리투자증권
오르며
전두환
자동화
펼친다
공직자
외교적
설치돼
##아산
##선거관리
라이선
넘긴
##이크
신기
한남
##ET
아이들에게
적었다
사단
다음에
##기업과
##둥이
겨냥해
투여
산재
##모직
건설교통
지진이
##사실을
뉴타운
##지식
과거에
패밀리
##기아
송영
##ey
안돼
관계에
중단을
비행기
서강
이달부터
270
잃고
보금자리
##부르크
##새가
##uss
##겠죠
경제성
요금을
18대
트렌드를
피서
지원한
양대
이곳은
흑자를
대정부
판매에
해외로
소각
생각하지
수분
유상증자
손꼽
LG텔레콤
문화의
세븐
##인력을
상고
중고차
신원
포용
통신은
소중
돌아오
옥션
##nder
무엇인가
분식
사우디아라비아
크다고
생리
대의원
이해가
내게
##가격을
해왔다
3자
펀드를
별세
대목이다
강화된
김남
연기를
소진
샌프란시스코
지키지
대변인이
##전당
##표가
##교육감
금천
##선도
답을
검토를
##통신에
조망
OP
계란
그쳐
듯하다
생각할
사천
현안을
차종
##페스티벌
약정
##현장에서
##생의
##지원금
옛날
예정대로
##연수원
심각하게
제출할
CJ제일제
아픈
오르면서
가솔린
대리점
손가락
프랑스의
강풍
주의해야
수입을
저렴하게
##품으로
국정운영
방화
사무실에서
##인한
첫번째
후쿠시마
##une
lead
NA
액세서
군에
다우존
최고급
마련돼
6명이
증가했고
##자리를
##조리
##주류
베이비
##자흐
##lear
넘어섰
안경
밝히는
예결
##61
##광주
##국립
그것도
금액이
99년
##협회에
12개월
여성들의
정국
재무장관
serv
##활성화
증인으로
1992년
트위터에
머물고
##더멘
##몬드
창원시
공급하고
교육은
매물이
오너
정권을
10일부터
주력하고
해결해야
안착
##만명이
##보훈
개발할
차로
도입된
내실
##군수
##71
##실현
주변에서
아토
고유의
국회의장
공무원이
NLL
블라디
WTI
수행하는
공사는
SOC
280
조정했다
취업자
도래
투자는
상장을
중소기업에
토로했다
관측도
공지
##수영
inter
무궁
교차
##시설의
재테크
소나무
공작
박람
탄탄한
##것으로
내기
##pen
불가피할
##번지
임무를
기록했습니다
반발이
광교
##ool
미국으로
아시안
공공부문
##전국
견해
철폐
상을
돈은
바가
4가지
증거가
우려하고
더구나
보이지만
상륙
하다가
압박을
모바일게임
누구도
사설
##컴퍼니
##ORPG
트랜
##디언
##ied
##지방선거
등에게
br
재가
##혈관
방지하기
##사다
발생한다
감소할
자식
상설
had
##ency
##증으로
중랑
좀처럼
아침에
##협은
비과세
달라는
스티븐
이뤄지
5층
실전
대를
명단
##결의
대상자
##승인
떠오르고
지속가능한
의료진
멈추
알선
##ax
개인적으로
상징하는
돌입했다
취향
25일부터
인상이
##린다는
파생상품
협의회
모두에게
부모가
매출의
기가
많은데
만일
##글로
농도가
##로직
고부가가치
##방한
##클리
승차
강원랜드
적법
설치하는
전매
안전하고
##2명
아키
규정에
미성년
1심에서
높아지는
사료
난다
생겼다
30개
투자전략
##예약
##끄럽
뜻하는
가하고
총재가
중심에
최영
##컨벤션
지능형
수년
일조
걷기
구두
검사가
16일부터
예상돼
10배
어찌
능동
직결
코미
집중하고
전설
##위성
##컨대
뒤에는
성장하고
감정을
근로자의
HP
##면접
인턴기자
키우고
발굴해
고민이
##공화국
##산업에
자궁
입장은
##재는
학생부
론스타
##eed
확대로
최선
##주면
업무상
장학금을
##터카
합참
파란
주유소
도망
1로
인질
국민은
##ected
택지
패스트트랙
싸이
부응
최태
부문에
소지가
##공무
##작업이
지역에서는
##세탁
기대되는
사례로
이해관계
고의
공립
차분
Cl
우선적으로
성격이
무거운
보게
제네시스
길게
##바이스
오가는
발전소
해방
포스터
이끈
##점검을
이회창
투자의견을
온갖
##수엘
##최고
실패한
커지면서
이번에도
구성했다
8월부터
촉구하고
작년에
##스쿨
##페이지
선에서
##프로젝트
강정
##단체의
방문했다
##글라
##청원
유명하다
읽어
버려
공범
임금을
##품목
모집에
교류를
각각의
##망에
##연대는
25일까지
판단할
연이어
이관
익숙
##하의
TH
정교
any
바로잡
PF
기대에
어든
부인했다
브루
개념을
가자
공직선거법
연평도
경위
기다리는
펀더멘
극히
2기
물고
그루
업체와
중단하고
##본을
인스타그램
워크아웃
##51
중대형
유재
3종
양상을
불안한
##리터
##플랜
6월까지
##력도
자치구
##베리
감성
98년
60여
경찰서
구축할
동남아시아
##조성
##리엄
경영진
낮추는
국방장관
##가야
조형
##하므로
감염된
권오
눈으로
MP3
하시
##ility
##명령을
변호사가
오후에
##매장
##ues
준비에
서울은
공천을
RPG
부담으로
공수처
증가율이
189
팽팽
인가
##피니
전일보다
방사능
##스틱
Pl
조화를
##eb
규모에
기해
실감
접촉을
행정안전부
##민들이
인식하고
카자흐
쉽다
기업가
프로모션을
품질을
어울리는
속으로
##요원
마련하기
제일모직
바꾸고
##연휴
특성에
서두
없는데
##SA
표를
개그
목요일
논평
심리적
뜻이
이번엔
알리기
발전과
탈레
임시국
개발도
살아가는
않겠느냐
##했어요
##고리
##반대
식민
메뉴를
은행권
15만
녹지
KDI
부족해
감소로
남북한
##행한
치는
비극
성장했다
3000만원
종사자
지난해까지
750
일으킬
##하루
맞다
국군
그친
##코어
##자로부터
기초생활
비서실장
사실과
어선
멈춰
취해
가격도
분포
No
오스트리아
아버지가
##바꿈
증권거래
경제학
##문제가
again
고백
참석하는
칼럼
인정하는
타워
1등급
삼성바이오
##보지
대도시
외교부는
대학을
라이트
드러낸
색다른
게시판
##리던
한파
서쪽
SD
CES
환산
건설사
부러
##퇴직
같은데
260
근본적으로
##73
ear
##억달러에
서정
전북도
카이
소송에서
결합한
보훈
응답이
않았을
JT
##현동
수중
끝날
국세청은
상권
##ick
되돌아
당황
양은
김제
스포
참가자들이
균형을
330
##난다
창고
곤두
입양
사은
do
##케이블
빠르고
마늘
Mar
청담
제외하면
14일까지
읽고
극장
시각이
되자
000여
좁은
카테
##합을
##소방서
정했다
선보이며
물려
연락을
평가에서
순찰
시장으로
성공할
##여자
띄는
##졌으나
업종에
기피
##해요
세력이
존재하는
테라
세수
외환시장에서
튼튼
상황과
역세권
거래대
케어
##항이
포지
##정책과
이걸
##구니
휴일
베네수엘
화웨이
년간
프로그램이다
해를
##임에
라이온봇
퇴직연금
기조를
인출
사망자가
단단
캐시
확인됐습니다
학교는
##BI
30만원
공부를
획기적으로
##이거나
##원이다
법무부는
무작
다뤄
Park
모양의
1993년
##rough
목적이
1991년
KT가
취지의
증가와
##산에서
아까
##하고도
##무용
공연은
때문이라는
강성
##라인을
아이디
유가가
목사는
유혹
##시도
점령
한은은
이후로
##전도
##드라
이화여대
보였습니다
글로
독립운동
대응이
발대
경인
##개혁을
분야로
국유
자료는
교육이
##플랫폼
기점으로
걸음
등락
공개하고
##hap
##7개
않자
앞당겨
감독이
커지는
시장점유율
호우
##고사
한발
사업부
자가격리
##들여
1급
적발됐다
고령화
사학
괴롭
한국당은
당했다
##열에
주관으로
도시의
매출과
오류
##실질
걱정이
풀려
그러자
1980년
강화와
박세
평가는
18일부터
비로
수석부
않으며
요청할
원리
위협을
대출이
등급을
비영리
아이패드
목소리
##hip
##수익을
물품을
순조
소련
##에어
육상
회고
메릴
쪽에
지원금
주도하고
위원은
노르웨이
덕분
##요양
정권교
박승
보건의료
소식통은
교직원
하이트
양국이
함양
보은
##행복
##연장
사형
국가에서
코스피지수는
원로
민주당과
인정한
1987년
활용하고
동력
사례도
야후
##합동
##혐의
##의무
##불이
명은
6000
이거
여당의
인사는
법무법인
##크림
추진에
더민주
기쁘다
더이상
판단한
##oint
##ange
가라앉
넘지
정년
스타일을
##폴리
##색의
##폭탄
본점
유적
기업은행
저널
온라인으로
수호
##창고
부적절한
홍보를
출원
도입했다
낭비
서울시의
전기전자
탐사
양국은
가량을
##움과
칭찬
흑인
##사와의
돌아서
소득세
##4일
과도하게
##스테이트
##오드
검역
하셨
김우
##제주
심해
요청에
놀라운
##근한
탈바꿈
삼성SDS
센트
8조
브로커
표현한
조성된
LIG
심사위원
달라질
영종
##석의
바디
학교의
삼성생명
투자와
##편으로
##석으로
비결
차질을
신종플루
선택해
상식
내부에서
호흡기
한수
한국거래소
##슬림
2호선
감동
나타난다
##연구원이
의약
전례
뉴스데스크
##르지오
##ology
버리고
펼치는
아들을
하에
역삼
20명
테스트를
두려워
조성하는
##상장
데도
##스토리
방학
권력을
소셜네트워크
행진을
##amp
인터넷에
##리더
서대문구
일반분양
잘라
시골
주먹
맺었다
혁신도시
lea
##상수
##란스
라스
숨어
40분
남경
친노
##아카데미
27일부터
스미
적힌
##트에
동아닷컴
김효
거센
필립
SK이노베이션
의하면
심하게
학사
추격
불어넣
투자유치
법이
최대주
##심에
이유에
오직
정계
제시해
##렸을
면치
설명회를
##가지수
##사회를
탄도미사일
포부를
알루미
##으므로
##네마
활동하는
팀을
##척을
##시리즈
달러에
만인
체험을
##OD
종결
메이저
급성
보람
생각하면
##크가
soc
내부에
MMORPG
2일부터
구호를
투약
정몽준
공업
##편에
##념을
확대됐다
22일부터
몰라
확대했다
중심이
UHD
##대회에
논의하는
##소장
코엑스에서
KR
구역
개선해
##절감
2월부터
추측
흉기로
대상이다
채널에서
파업을
팀이
##책으로
알아야
##전담
add
동문
나가기로
게임은
한성
컨센서
어지
##대회가
문화적
예능
##반의
##ivers
요소를
##경제인
##날레
##ures
때의
크로
320
##래프트
대응해
##객이
새끼
무분별
신청은
왔던
##6000
부작용을
정답
선택하는
괴산
김호
맡는다
##만9000
대학에서
신주
would
수납
측과
##들에게도
고려해야
##르다
회의가
흑자전환
##잡이
운영되고
업종이
음식물
파고
멘토링
징계를
요약
공헌
50년
직원들을
CA
자생
은행에
액면
##론가
10조
주목하고
넘었다
파악해
현상은
##곡을
##카르
전형적인
##비용이
기운
일어나는
김미
전년도
##30일
##우병
##계획에
##집단
BN
나름대로
정문
##량에
남편이
##가격의
토끼
집중호
들어선다
1000억원
꿈꾸는
신입사원
##원전
발목을
참여가
양구
의도가
견본
벌어지는
다다
것이어서
##날을
구성하고
103
동포
지켜보
언급하며
하락할
참관
부검
이혜
원스톱
행위는
29일까지
임상시험
한양대
가속화
목표다
와이파이
##8명
2부
시행하는
목적을
공식적인
##퓨팅
폐업
태어
보증금
엘리베이터
당사에서
민주평화
##ai
대북제재
공개됐다
6억
제기된다
##ash
금호타이어
예정이어서
즉석
9개월
비박
##소득세
최상의
생중계
낙하
용도
##ution
국무장관
공백
배수
고리
회동을
바닥에
2차례
눈치
NH농협
본관
수년간
##개발기구
##질서
희망의
원안
##치료를
탄압
장소를
제외하고는
##수학
근거를
보조금을
뜻한다
스노
제주도는
심도
늘어난다
국정농단
붙잡혔다
##패스
당시의
##시키지
New
알려지지
취업을
아닐까
부품을
##육성
world
확산에
오면
베르
과정은
파운드
##설명회
제시할
##문화회관
대포
것일
서울이
##렌즈
끝나고
전작
##스마트
알고리즘
##보의
언론사
대표적이다
사망자는
금융상품
##노동자
정우
##엔진
##야마
보름
ph
정책적
##공공
전세가
파업에
불신
##으로서는
딸이
막걸
다루는
21일부터
아프가
점과
##조약
##식당
26일부터
##4000
개최해
##화질
물결은
##당국에
##들기
유권자
##레이터
상승률을
##라클
100년
승소
정윤
##83
##증과
조기상환
선정됐다고
샌드
17일부터
실력
됐던
SK하이닉스
million
서남
##하겠지만
관리하고
##산동
영유아
위치했다
##으려는
7대
한결
##규정
##해주세요
공략에
사자
탐지
심야
지났
투명한
주축
전망치
대항
업체로
때와
##미니
상금
외형
카메라를
GE
##게임즈
든든
##드레
구축에
질병관리본부
이어서
##테마
구본
다목적
가치는
일으키는
제주항공
결집
##지침
##만명의
도대체
드러내
박경
사업도
마쳤
##상품권
우려하는
누군가
체질
##보고서를
지역별로
##들까지
회담에서
##겠습니까
전방
##5개
신의
초당
##메가
남지
받았다는
단기적으로
온라인게임
##관리공단
강화한
##유동
##세데스
청와대에
브랜드인
나서면서
계류
##갔습니다
##타는
내구
##2개
할리
하였다
터미널
##들만
양국간
평당
진료를
영업이익을
스탠더
기자는
내놨
##상태를
첨가
입수
본래
미미
##다드
country
지문
##㎡의
이고
변화는
##하긴
정책으로
우즈
출력
미네
통증이
하느냐
요금제
20만원
2000년대
##활용
전도
##갑니다
조직의
##비즈니스
##ries
경산
생긴다
리베
인터파크
2번
쏘나타
##민을
쏟아져
주중
유방암
관광객들이
부족하다
상반
친일
토종
적용을
1980년대
##8000
휴식을
PBR
숨지게
이젠
용납
날로
넘을
관망
입구
23일부터
정보와
의식을
없었습니다
시군
인문학
반영하는
##서야
마음의
Al
종업원
이자를
##외국
신제품을
감동을
3억원
##있습니다
연설을
사회주의
플랜
홍수
포스
지시한
대략
파격적인
해커
플로리다
##적십자
살짝
타당성
사회에서
##겠고요
전문가가
산업혁
국민들은
만의
보건소
그해
검찰과
President
국무총리가
왔습니다
3번
트로
영수
##강좌
진상조사
되겠다
97년
##미르
오후부터
11번
기업체
위험에
유공
혐오
아파트에
매트
제네바
빈번
##스프
시기는
선발된
급증한
심상정
편하게
보여줬다
지켜야
##경의
증가율은
호수
##연습
참가할
한마디로
##조절
무주택
##분리
수해
##학대
##이에요
충실
##일러
강점
건물이
일체
사직
마시는
본연의
##도도
추운
28일부터
다우존스
본선
전망됐다
##작업에
반대하고
2종
흐르는
보험료를
열정
24일부터
급등했다
##후보는
제출하면
가기
##조사가
##협의회는
캐릭터를
강연을
##ext
할당
##키는
도우
총력
하기도
드레스
강제로
##지방법
im
11일부터
가구의
조화
##라이브
지켜봐야
설탕
방사선
김부
한국GM
속한
핵심인
##어치를
##투를
##해준
협동조합
2006
자녀가
연애
토마토
케이블TV
엄정
없었고
APEC
##초를
회장에
고흥
양승
정관용
거론되고
##거리에서
##5명
##억엔
시위가
200만원
##4개
측에서
##네스
##의사
##모리
##교육과
피해자의
집값이
열을
##재무
아무것도
##적으로도
낮았다
기성
변화의
늘렸다
편의성을
혐의다
##층은
확고한
##농가
##단체인
지식경제부
9명
사망했다
받으면서
인상에
##서스
시간도
##월드컵
현금을
눈물
마시고
유치에
부모의
##혔습니다
수월
펀드의
물러나
초록
##넥스
IA
11월부터
supp
3만원
읽는
##CE
정운
경우를
한국수
청춘
가평
her
##제도가
22일까지
무이자
도시락
않겠다고
공채
여섯
JP모
도이
##즈니
예상을
찾아볼
서비스다
##실적이
제철
도입하는
##경정
융자
전략으로
심층
본사를
##발전소
사용자의
노사정
##ording
밀착
##96
합창
즐기고
##해달라고
제공하며
증가하면서
오전에
##하십니까
지속할
김한길
##독한
불이익을
##장에는
판로
캠퍼스
##보험은
보였던
기한
국가적
승계
into
산업용
상한가
데이터베이스
##onhap
전망은
김일성
제목으로
기능과
러시아가
결합해
파주시
비용으로
가격의
누락
1988년
000만원
저감
극복하고
신청이
이장
##영화제
아프가니스탄
조짐을
##반응
연탄
국제적인
어디에
##개발을
##4명
담겼다
임기가
건설업
##만히
원내수석
답한
확인을
전문가로
새누리당의
제도의
낙폭을
잔여
보호하기
실린
술에
주름
취지를
##통장
##가구의
##조명
##방송을
##방학
24일까지
호조를
발표될
산사태
##로라
##지던
넘는다
13일부터
최씨는
피자
블랙리스트
고고
시민과
있는데다
토목
##맥주
신인
자신들이
담보로
왜냐하면
##근로자
아리랑
##경에
##리나
출마한
7일부터
RF
관세를
한참
##르면서
지자체가
청장
한달간
얼어붙
제기돼
필터
게임에
##교육청이
##이도
창설
높아지면서
완도
가죽
##추적
경감
알렸다
부문을
직속
27일까지
대화가
##크리트
추진키로
증가가
에디션
사무실을
공문을
##소설
##우를
것들을
법과
##했으면
산업에
제품인
나주
고위험
금산
경영에
상태입니다
지킬
한국지
이름은
사태의
앞으로의
중입니다
106
안정성
역전
##마에
회사로
면담을
원칙적으로
##중소기업
구축하는
##행성
공동연구
한솔
##허브
인정하지
개선하고
NC
즐거움을
조건이
##보와
규정이
거쳐야
포털사이트
도지사
파크
투자의
작용하고
##㎡에
미스터
메르세데스
이례적으로
주장하며
apos
표출
김학
앤드
있겠습니다
att
범죄를
국민연
##겠다며
전동
##지하철
##설명회를
##형사
##반이
점수가
카자흐스탄
##시기
신개념
9년
##직에
모욕
상승세로
고쳐
오버
그에게
있다가
발표했습니다
Lee
닥터
사냥
착륙
있다면서
개선된
내비쳤다
처리가
생산할
##였으나
선정하고
없었다고
못했습니다
##협회와
총리를
모를
##류에이션
산타
단식
번의
확률이
##물량이
태스크포스
인력이
##남기
수사의
유용한
##배가
유지해
4명의
전량
##RT
유관기관
연락이
검증을
진해
고객과
##분야의
##닉스는
버전
DMB
5억원
비교할
급성장
초중
개최했다고
아닌지
##프의
이견이
차이는
가습기
지침을
##민과
##미안
개인적인
영농
최저기온은
산업이
제도는
그녀의
히로
직격
산지
반응은
기울여
받아들이지
##받기
발견했다
전기를
치과
줄인
##배럴
취임한
지정해
전문가를
물량은
부족으로
향상에
가구가
설악
하락으로
KOS
그치지
5일부터
감상할
임직원들이
한국전쟁
정오
10개월
관영
외환보유
폭넓은
##하러
##화했다
자영업자
확보가
출석해
전투기
살포
호재
##97
남기
사용된
증강
갤러
콜센터
부분도
##uding
##통운
##ink
작용했다
성장하는
##하기에는
목표가
용인시
##경찰청은
##위기를
so
지도부는
남을
추정했다
동안의
등지에서
돌아갈
14일부터
도의회
제8
임산
##ative
도보
##문화의
윤상
##가공
대관
판촉
럭셔리
107
남양주
비정상
사원
원주시
지급할
아이스크림
징후
문제점
##수용
뉴딜
6대
한다며
장미
북극
크로스
산자
일련의
June
##ye
제한을
대학은
들면
##구축
환경부는
대기업과
발행한
불가피하다
장점이다
26일까지
국가는
6일부터
건데
닷새
사들이
주변을
구경
최적화된
##량으로
##티를
##use
코스피200
##1개
중앙정부
전하고
운영한다고
##원으로부터
알릴
급등한
##경찰서에
##본부를
해법을
의석
목동
코스피가
입건했다
##량과
##프로그램을
##커머스
부를
대응하는
치료에
12일까지
협업을
정형
중견기업
회복세를
##판으로
높지
보장하는
오렌지
돌고
##르며
복지부
맡겨
견본주택
2억원
모두의
인근의
거창
##의학
##이었다고
용적
언제든지
계획이며
평가해
car
KIS
달리는
하반기에는
JTBC
자위
시행에
서울지역
고소득
##었어요
신세계백화점
출처
동종목
##하늘
eff
안정화
받았지만
USB
반짝
상당수가
4백
떠오른
부위원장
12일부터
##ike
질타
옮김
늦어도
내일은
넣은
윤종
대남
시행된
하원의
##매니저
반값
이내로
리니지
있었기
##상황에
##15일
영문
실명
도시로
방법이다
FDA
##특별위원회
특징을
세종로
##8개
불복
각자의
LG전자의
창업을
요건
접견
15분
콜롬
대담
대동
못지않
##왔고
수준까지
낮춘
핀란드
##인인
##증에
찾아야
1만5
해석이
이력
##종금
1989년
연다고
비하면
저의
높아져
보여줄
단어
##경색
성립
배울
알렉
##증진
상수도
조정이
한림
대졸
매칭
##내용을
당해
##자금이
##병으로
도시를
12월부터
##놓을
진행자
##익을
필요는
##틱스
##활동이
발생하면
적격
##5만
종일
중단된
움직임에
김근
스코
부지를
##인터내셔널
위메
8일부터
##적이라는
##urr
회복에
이규
전하는
멸종
스타스
##볼라
##시설로
지나지
가전제품
29일부터
grow
서울대학교
밀어붙
의결했다
company
##안으로
보도한
바람직하지
하락세로
하버드
포스코는
주장한다
해외여행
지방은
남의
##달을
세단
안희정
7명이
개를
긴밀히
속여
대개
##작은
##금고
공개하지
19일부터
##비율을
채권단
자격이
빠질
분들
반사
청량
##라운
영예
감사원은
조성하고
안전에
PS
양측의
국제기구
달린
##요구
재미있는
9일부터
##7000
부부는
의왕
##되더라도
감싸
AD
거액의
영장실질
원장이
9월까지
딸을
대용량
##rop
가다
##짐에
##싸움
작년보다
자사고
SI
삼성화재
의문을
현대차의
감사합니다
두산중공업
무디
##공예
##열차
신앙
신호를
것만
임의
##에미
고공
메일
##지거나
베이스
안겨
전술
##US
교실
실사
빼고
공습
##작물
5일까지
판매량은
4일부터
##무장
17일까지
서방
##했거나
##상태에
##전남
no
##소개
당선인은
규정한
Wh
##표시
인접해
퇴원
2명은
줄어들었다
논란은
프로야구
관장
9만
가혹
단계에서
놓인
끌려
영주
설비투자
23일까지
않나
어두운
##겼습니다
##독립
남원
##사령부
네오위
생명보험
담배를
후계
에서도
마다
KT의
처리하는
폭등
서로의
레이스
##슨은
밝혔다고
삼국
강조한다
##억5천
산간
완주
방류
많지만
외래
MBN뉴스
인원은
정관
생산된
지급하고
해결에
최정
이시
외교통상부
교육에
##주거
##혜택을
국립공원
##트럭
초래할
3도
여객선
주범
안면
솔로
완벽하게
수요에
인성
발견돼
##비도
극복을
##BA
##라이언
거래량이
더한
18일까지
예컨대
550
##로우
미쓰
문의가
다주택
방송은
뇌물을
그렇기
집필
순방
인사청문회
장면이
점쳐
공무원연금
부회장의
##6월
정황이
bec
똑같이
##00원으로
이르고
설문조사를
제공을
추정하고
국가주석
지원은
박영선
IF
PC방
##맞춤
4명을
여기에서
실제로는
지식경제
전념
음주운전
스쿨
때문인
춘천시
실험을
영천
항해
접근이
##집에
간호사
##WC
더했다
적용하고
For
헤이
않거나
2도
##씩을
가로막
ac
##능력이
바뀌었다
밀레
PL
돌아오는
##믹스
##르드
##2백
광범위한
2곳
단독으로
##속에서
구조가
후손
##파트너
초기에
분수
##제어
##박이
하려고
##만8천
프레시안
이랜드
4분기에
바닥을
줄였다
국한
홍익
에버랜드
받기도
선진화
걸림돌
자동차보험
뽑는
있었을
조성할
연구진은
3월까지
business
되어야
적혀
재도
적잖
12년
##여행을
2명의
미수
21일까지
박태
##정책이
##감치
있음에도
만남을
OPEC
라운
날씨를
##집에서
천정
지냈
이전을
11일까지
고객들을
힐러리
역내
##마리를
net
대화의
##면과
상승률
수법으로
기념식
포함된다
##유는
윤창
중앙선
다르지
##물질을
있었으나
확정됐다
북미정상회담
적당
유럽에서
19일까지
하청
##건물
##ata
장내
you
후보자에
##사기
절반을
경기에
such
##했음에도
진입을
해병대
중소벤처기업
##로선
##파이낸
3곳
고민하고
##위원이
시너지를
바이러스가
##노선
결국은
귀농
FIFA
##설립
호평을
정준
우려로
##amsung
공무원의
산업자원
챙기
결정적인
작품으로
풍성한
##먼지
##지향
어디서나
법안은
밸류에이션
##가구에
##gl
prov
남짓
지식을
작품이다
전면에
하나하나
발동
모임을
##성능
얼굴이
낮추고
자선
뜨거
시드
##해결
CGV
일과
서울로
김관
원산지
자녀의
국공
값이
편지
치즈
버블
##91
use
치러진
##용이
개정안에
##친구
인정했다
##치료제
##중단
페루
##기에서
계신
체온
겹쳐
대금
##ese
낸드
대세
여드
3일부터
##파리
레인
주민들을
5000원
모호
조성에
살기
릴레이
꼽혔다
아우르는
정보통신기술
대미
다큐멘
##빨리
##스트로
신청서를
##스틴
##ons
집무
30일부터
롯데월드
정태
안타까운
##집이
본토
베스트셀러
마신
6시까지
통합당
12월까지
under
시작될
반면에
의대
##위치
스탠더드
일정에
수탁
including
밀접한
살리
천주교
외무성
경제와
##찌감치
담당하고
아라
중소기업을
않았기
##ove
##검진
가져야
성장의
공방
##라기
안되는
참석자들이
양도세
주가를
전병
늦춰
##공약
보라
dr
##증권이
판매되는
평창동계올림픽
##81
금지하는
##층에서
사람들도
사안에
원정
최강
현대제철
전역
이정현
임박
##공장에서
9일까지
채권을
회복이
LG유플러스는
이상이면
공유할
오케스트라
받았으며
하라
##만t
##대장
남는
의구
일으켜
이미지가
##속을
##허가를
학교폭력
주입
공룡
##쿠르
내정자는
##여객
법학
초에
끄는
16일까지
세계일보
맞을
##자들에
##장치를
##였는데
엔진을
지난해와
성공적
근로시간
남아있는
게임이
##과목
2030
방침에
안전성을
압구
하트
알려주는
협의가
도로에서
정황을
편지를
농장
시공사
도입할
부동
돌아가는
마련이
##보장이
목을
입는
받도록
오늘부터
##ife
저를
키울
펼친
분양을
법에
##미노
##오토
정부세종
##착륙
##버거
세분
갖췄
정부서울청사에서
##TRA
싶다는
##입니까
믿는다
##모토
증가를
여건을
##았으나
사의를
호기
민병
아쿠
##하지도
하려면
주기로
##롭지
##미아
전기가
우려되는
##스럽고
분양가는
CNBC
##RP
방산
##재의
수입은
소방관
마일리
3분
정화
실현을
거래됐다
팔고
사고는
피터
##모가
단기간에
구간을
지원하기로
##산업과
##마는
분배
학대
CU
고양이
##경영을
신정
##간을
분위기는
show
##line
강조하며
1명은
##디는
내주
EMAILCopyright
보잉
##폐지
vis
13일까지
Yonhap
검토한
고려하고
혈압
바이올
추억을
추세가
100억
특위
디저
자동차를
기동
틀을
한빛
##연설을
지사가
좁혀
선택의
드루
진천
나라는
포르투
##러는
##제도의
##man
650
##제약은
될지
##엔날레
권고했다
생필
구사
제공되는
##ever
기관에
6개월간
불허
금융감독원은
줘야
로그
사용하면
##이었는데
원자로
Co
##여부
의외
압수수색을
예정으로
개회
모두발언을
##교과서
##으로만
아쉬움을
##담배
자본주의
아쉽
안개가
던져
##특별자치
열쇠
##측과
e스포츠
해양수산부
다리를
##92
대체할
모두를
##인데다
후지
##급한
##마가
19개
통지
카드사
오른다
사이트에
없어요
22개
##진한
EL
목욕
전년동
경제협력개발기구
박선
##팀과
몸매
제공했다
##대회는
매치
오세훈
마침내
못했다는
전성
닛케이
화산
야스
2개의
##말라
##임은
##TT
##ms
임기를
사실에
당국에
##한국당
노키아
의무적으로
멤버십
##간다는
기승을
프로젝트는
화답
시행을
##버스를
국가보안
##주택공사
모험
##조례
##그룹과
싶었다
##오프
바람직한
미션
내다보고
##체육관에서
좌석
##출자
##검색
전광
##덩이
제너
조장
##베스
시야
전체회의를
meet
극우
배우고
전체에
##테이션
유럽과
정상은
떠났다
죽음을
회의는
결론이
얻기
##제표
##하였으며
친구들과
##원장은
한식
SH
시중에
시총
인형
영장을
가입자가
##올해
출현
대표도
정상화를
##시설은
미쳤다
##팀에
##러닝
9시부터
쌓인
위협하는
상황으로
특징은
##민주주의
SK텔레콤이
사용했다
접수를
입문
##기온이
아버지의
##오리
부안
인물이
네팔
##어치
개선하는
신공항
고객만족
미만으로
찍고
##율도
페르
인정받았다
농산
##행위가
##보라
수준은
전문가의
허용하는
##격에
뇌졸
##개선을
아랍에미
순매수했다
##휴가
이용하고
버티
조성된다
한숨
##급으로
분과
공산당
무상급식
횡단
국립중앙
##니를
프로그램의
공관
무의
양형
자료가
작가가
시승
길은
##일과
이공
생산이
집계됐다고
크리에
##개국에서
##군으로
group
제3자
침투
조카
방송에
자연스러운
리뉴얼
법적으로
sm
이후의
달성을
디자인이
최종적으로
DVD
##교육의
행사도
##드라마
던진
유의해야
##추가
예상됐다
##크루
##오션
B씨
성격을
적고
기능은
##판에서
예상한다
생산하고
이르렀다
1도
체코
접할
가파른
##은희
추진하겠다
뛰었다
금융위원회
여러분께
먹으면
트래픽
지적한
18세
정립
인물로
감기
POS
상승률이
돌아와
순매수를
##법인의
총장의
##여고
기초자산으로
##개발사업
주도권을
##행사가
갑질
안심하고
생산한
7일까지
2만원
캐피
추가경정
유래
정병
우리나라에서
##호로
이사장이
평가한
양측이
동쪽
공모를
정치적으로
인원이
요르
배운
##이므로
알기
연인
전문적인
##현상이
넘어설
드린다
경험할
통학
PDP
용도로
##9명
시스템에
계기를
##너지가
##관제
결혼을
살아있는
8000
##메뉴
##관계에
##진행
##정산
문경
##5000억원
우체국
##세무
돌연
Germ
지사의
일원에서
아바
##타인
##하진
파우
##되기를
여주
열기로
이끌었다
클리
성장성
통장
영업정지
##열이
##사범
주민과
뱅크
소금
성명에서
##종일
하자는
##가면서
KDB
한국산업
##장려
웃음을
대표에게
10월까지
설명한다
##물인
끝났
개교
600여
캠코
나타낸
차장은
필름
##단독
내놓지
파인
1호선
##역할
지리산
초미세
단체가
끝났다
데스크
오리지
수치를
심리가
70여
내의
최진
##유기
연결합니다
##앤드
보였고
부산항
유지하기
예로
제2회
아메리카
뛰어넘는
멘트
미사일을
어제보다
가량이
지위
정정
하동
등에도
연기가
##생명과학
휴대전화를
##총장
무책임
창구
##소리를
60세
독창
귀성
단절
기어
마인
##체적
선거인
주공
도교육청
양극화
##비디오
플루
정주
한낮
낮아졌다
무리가
벌써부터
음원
건강기능
감소하고
##ss
##내려
시상식
쇠고
##론의
##째인
##만9000원
장소에서
방침이라고
국내산
매출액과
KC
러시아는
포즈를
김성태
연구가
기자들의
##보건기구
##포장
장치를
##수익률은
펀더멘털
과거사
사실도
유상증자를
전적으로
하나님
지체
테슬
동래
독자적인
무상으로
신고한
전원이
기준은
동성애
잘못을
이바지
추석을
많기
주력할
연차
간섭
식중독
디지털데일리
지점에서
대기업이
진술했다
연결된
생생한
경기침체
##ancial
111
##용역
밤에
영향력이
조항을
인정할
여력이
against
배우는
한시적으로
영리
좋습니다
신진
##산업진흥
인접한
##위크
앱스토어
입법예고
##단체와
공감대를
불안감이
진출할
지을
차에
귀를
확산될
선수들이
질적
이곳을
발표는
정무수석
##용을
21개
##재단이
위치에
세로
개방형
플래시
의장의
과학기술정보통신
바지
진출에
해요
연루된
불과해
인센티브를
##냐고
##10일
소방서
센서
높았고
행사에서는
100대
포드
동작구
실증
드립니다
##발전에
일방적인
지친
정상이
반발했다
코레
디스크
만나고
단정
##대해
하락에
거부하고
확인이
들어올
정씨는
##inistry
##증권의
원내수석부
화요일
##반은
건강과
규제개혁
커넥
카르
가꾸
##ium
##으려고
우승을
커져
조직이
특가
광우병
안정성을
한신
보성
실태를
싶습니다
서울지방
사우스
라인을
명예를
자원을
##round
pos
함으로써
7000
상승폭이
end
report
자신만의
사장으로
SK텔레콤의
도저히
##ough
성균관대
나서서
포함되지
친절
깨닫
표명했다
넘어서는
수행하고
롯데쇼핑
친화
##ery
대회에서
참가했다
하우스
자는
외치고
순식
상응
접경
8일까지
슬림
세션
친이
부대변
##프린
어학
5일간
이태원
##병은
구성되어
확인하기
벌인다
토익
##음은
채용을
취항
낮아진
부임
##ting
개개
정영
##척이
잇단
일행
군포
김문수
에듀
##억달러의
충실히
일찌감치
loc
develop
##정보시스템
가능하다고
나타나지
##노조는
##플란
칼로
밝히면서
이길
낮췄다
단계로
했기
늘었습니다
6회
##이나마
영덕
비유
후보에게
할까
##ild
생각이다
1부
전환하는
영도
##기관은
##시했다
전기자
방송된
언제든
위원회는
##bps
교육감은
세액
워킹
충청권
##교가
법규
방안은
##공간으로
##충전
##회장이
비대위
##콜라
관제
보습
중등
참석자들은
관심은
자신과
세번째
잠수함
살펴볼
환경오염
걷어
비비
##류는
##회사는
아토피
상승폭을
SNS를
성장동
##EMAIL▶
경보
모델인
6일까지
우려해
용기
많게는
사람들과
3개의
##료품
최동
4∼
활기를
반영할
올해에는
전쟁이
군부
상급
책임은
스티브
드러내고
모텔
계획도
##해야만
##경제의
통화를
성숙
호르몬
##호흡기
##출입
테마파크
신중하게
움직일
투쟁을
교섭단체
호가
내년에도
##마저도
울트라
선순환
느끼게
전방위
전재
고충
##전부터
##그리앱
SPC
간이
배치해
제10
##끄러운
요소가
영상이
위기의
마감됐다
맥도
참고인
마찰
##보호법
시각을
다양하다
##지나
##부장은
업종별
문의는
지정한
적용될
상장사
카타르
##비치
주인이
##만8000
감염이
##사장
떠올랐다
안건을
울진
채널A
시간대
BC
가입을
일각에서
경제성장률
미소
정제
로맨
파장이
##114
종합주
##세도
공세를
구동
##특허
##운하
경신했다
집어
##준호
##플렉스
동아리
이동할
##확산
단양
rem
##렸으며
60일
##워서
3국
가득한
살린
학생들
2030년
안건
땅에
##ert
최소화하기
##복구
축제를
나누어
판매는
ass
고품
##가중
##자마자
##교의
##불량
예방에
현재로서는
표지
점유율은
흘러나
억류
정부조직
원작
##병원으로
play
수단을
찾아온
과거와
지금까지는
지구촌
4개의
기반이
사외이
올라온
취득한
##중을
안전과
##경보
##종에
일각에선
이란의
##레나
검사는
예상치를
사적
예방하기
기재부
일정은
우수성을
주요국
촬영을
행복을
years
##으면서도
고인의
외교안보
출연한
분향
뉴욕에서
걷는
타는
행자
실시된다
##사진을
아들의
##캠퍼
4회
뇌물수수
2년을
##3만
잇따른
##GO
스파이
다가오는
다하고
##언이
퍼스트
것일까
배경에
가슴이
##결산
5m
방향에
한ㆍ
구속영장
성장세가
form
혼다
데리고
자격으로
사안이
##20일
건국대
##gy
프로그램도
밖에서
##mun
##유공자
헌정
##선한
##급의
오리온
##스크린
비는
당선된
부여하는
불확실성
NH투자증권
퍼져
2008년부터
편집자
언론을
촉구했습니다
물리적
종합적인
##워킹
경복
까닭
SE
키운
##피싱
교훈
가지는
조선시대
휴대용
맛있는
##와도
##urn
신성
##uclear
##롭다
문희
##산화
##결합
몰린
박형
양사는
##지연
발전시켜
복권
##ula
##건설의
해결해
해경은
버스를
##3백
길로
##물질이
이들에
달러당
북상
##만큼은
시행한다고
선정했다고
은행과
인정받고
##디에
##치킨
복제
서울시와
주거환경
3명은
좌절
격차를
드루킹
교사가
확대가
길어
##프라이즈
정하는
##카드가
상승해
다스
집계한
대안으로
관철
##이죠
항구
2009년부터
만장
이루어진
동일하게
오후에는
##브란스
##면세점
##조사와
지수를
친박계
위례
박주성
스토어
디자인으로
##교도
뛰어들
방탄
##전재
스마트폰으로
##생활에
콜롬비아
fl
의미에서
##배로
대신해
데이트
##다이오드
소비를
##주의적
당권
역사가
마구
소관
##배출
법관
없이는
##권익
부적절
절반이
남해안
인물이다
신생아
침략
##테르
주어진
전시장
##호와
평등
일평균
건수가
기본계획
##특례
Hy
나타냈
퍼포먼스
통보했다
국빈
이면
보답
##eral
##중국해
##대기
##지역인
출시될
##체결
생활용품
한국도로
20∼
노스
##30분께
접근할
속해
구인
올랐습니다
상태였다
혼잡
우아
중요하지만
노력에
기내
관광지
##량도
전체회의에서
탓이다
##변에
##거부
기다려
국제유가
만족도를
##orp
폭발적인
유영
하향조정
연구는
모건
불린다
##C는
명실
통신사
접근성이
재판이
두각을
원룸
##병의
포르투갈
숨을
회견
내무
소문이
사이로
특사
##되었으며
레이싱
##차도
바뀌고
개도
취재했습니다
빚은
참여하지
##제안
인생을
##병원이
##길은
##기록을
비판하는
유익
체력
구도
목록
이벤트에
클래스
김모씨
##학력
에피
through
우리나라에
영화의
민경
벗어난
DDR
우선협상대상
소비자들은
모빌리티
돌아왔다
하나도
##OT
##부패
낮출
보좌관
##주공
##경쟁력을
경부고속도로
##영어
남대문
##uction
public
촉구한다
개학
##터스
##판은
받던
고객에게는
##신문이
랜드마크
##만6천
성금
좋게
여유가
저조
언론들은
그동안의
성동구
##교육원
소유한
판단이다
환자들이
##억5000만원
합동으로
나서기로
무선인터넷
대한항공은
서비스인
시가총액은
##티아
삶에
##gan
도덕적
좋다고
인구는
방식에
센트럴
최성
여기는
개선할
불안감을
영혼
지니고
med
차려
##로만
구성한
2010년부터
생일
엔터
영향력
콘크리트
제9
표했다
격상
나어
현지에
청소년들이
총학생
##업과
##화장품
정상회담에서
수상자로
when
##접수
부스
유도하는
##종인
극동
G마켓
환전
불에
표현했다
인하를
추천을
어드
19세
1기
경주시
김경수
반려동물
시점이
홍대
극복하기
찾는다
보험금을
##광다이오드
des
최하
없었지만
리스크가
선고받았다
전철
##위원으로
순식간에
##니까요
강신
삼성서울
투자의견은
감추지
제기하고
##6일
60년
##인데도
##국악
산소
당시에는
강동구
공간에서
작아
해저
당부했습니다
하여금
논란과
down
자발적
실수
유지하면서
발표하면서
샘플
지역별로는
##차이나
##원대
신부
옮긴
bu
1을
상승하는
거치지
사태와
중앙대
삼양
##무가
한미동맹
남경필
2박
연례
국내에서도
머물러
##머징
같았다
##신도
채팅
실려
대한상의
##로에서
수도권과
##플랜트
##지수도
##디움
구성하는
메카
연립
##총을
모드
창의적인
않더라도
남자가
각기
디자인의
정치적인
내놓는
획기적인
2012년부터
아이콘
그들
##만4천
당선인
뒀다
2011년부터
관련기사
진동
성북구
##병원을
압력
bl
오리지널
##라인이
사각지
주를
프레임
1200
문화와
구조로
외에는
##워치
유일의
모아지고
김영삼
정치에
DA
##시킨다는
약을
붙은
직권남용
특집
2000만원
일축했다
보험금
민족의
금리인하
시판
수요는
3개월간
##스어
삼각
뉴욕타임스
증정하는
유로화
17대
조성한
명성을
옥수수
다가온
9조
금융통화
의문이
부행
##단지로
참으로
사업자가
소셜네트워크서비스
귀환
쓰기
이상한
활성화와
바꿔야
##ork
결정적
##법인을
정치가
결핵
정직
어떨까
겪을
##릿수
공사에
##9일
SK브로드
순매도했다
어릴
##양호
구글의
책임자
손해보험
##미리
선호도가
성산
SNS에
옥천
11월까지
3차례
회사에서
수순
이세
선제적으로
지급된다
##금액이
6월에
인구의
##창을
president
Group
우라
바뀌는
tea
의무가
위협이
##검증
6차
##호기
운전자가
물의를
충무
비판했습니다
##유니
최저임
##전시회
길에
김포공항
##유치원
##청소
선물로
기술에
그와
경선을
농성
퍼블리
##개발원
돋보이는
##부장관
설립해
##신고를
반정부
##의료원
##모델을
역설했다
##its
천천
##특파원
달을
인연을
장소로
급락했다
모집한다고
##7일
12만
##센스
혼조
our
##부서
연비
무단전재
장세
##문이다
불평등
낙후
볼거리
Bl
깔려
위배
있는지를
가난한
소공동
확실하게
옮기
52주
##셔야겠습니다
ID
생산에
연방준비제도이사회
사표를
만드
점유율이
클러스터
이학
135
공간에
##미의
압력이
##축을
증거인
선생의
##처분을
동국대
거부한
원활하게
ICBM
시스템으로
박현
구조적
##난이
신한금융투자
##6만
인도적
오키
논문을
달고
사운드
ann
한미FTA
꿈과
##경제연구소
달래
없이도
물놀이
원내대표와
지자체의
후보자를
벌이
과실
##회장의
##함으로
리더십을
역할에
깨달
공시를
##만7천
상여
##해서도
인선
에드
5명의
주도로
백제
학위를
삶과
외국인들이
조금이라도
법정관리
##우수
##밀하게
##28일
공휴
시황
넘쳐
건물에
##운동에
8월까지
존재한다
발전할
4위
정론
KOTRA
유병언
공공기관의
##계에서
경관
국회의원이
##방식으로
##병에
악취
섬세
단연
공예
구독해주세요
##웨이는
적절히
##보레
추상
인허가
세계가
소요되는
##트니스
영암
##3억
##메디
환자에게
##왔지만
세계보건기구
2주간
못미
##공동모금
8명이
소명
인위
##자와의
완치
성취
고영
교육부가
아랍에미리트
공론화
공기가
이동이
불로
되새
컨설팅을
조원
##코리아가
CEO는
10도
##발사
생각보다
고졸
시멘트
##오를
중도금
컨텐츠
기자들에게
대통령직
몰리는
언젠
##민은
10∼
항생
##극장에서
사전투표
##이든
매매가
경로를
##소매
고위공
요청하는
탐색
##8일
묻지
보태
품고
스님
맡았던
총격
노골
추가해
양을
각별히
연결기준
##7만
향토
싸게
사용한다
##31일
보아
경력을
수협
감세
##는지는
김중
안정된
가정용
##해볼
##등은
분해
견학
경기에서
SK그룹
##었으면
##모의
해준다
사양
무시하고
이선
서거
저자
##기업들이
강재
원조
##인들을
몬스터
취재진
핫뉴스▶
##구리
라인업을
고승
짐작
다녀온
세탁기
발길이
거리두기
때만
모멘텀이
런칭
법제사법
##지분
##드리는
##졌는데
바짝
업데이트를
불리한
##과정에
명칭을
개인정보를
펼쳐지는
##대책위원회
떨어지면서
문턱
선명
형태를
한국과학기술
##접속
품목을
##적이지
여타
감소하는
구별
아스
##란이
##인들에게
우리나라를
##새를
머물렀다
##되었고
##생활건강
서울시내
팔을
이행을
International
CT
고기압의
##성형
윤곽
부분에서
부산대
테크노
반발을
베네수엘라
쌓은
해외진출
국보
##바바
국민들
간첩
##비트
##사퇴
올해보다
활용될
중간에
시점을
전문가는
쾌적
쌀쌀
테마로
허락
살리는
얻게
##블루
KS
북한에서
명의의
폭력을
GS칼
대화와
국토교통부는
4도
구강
##초가
2세
##투자신탁
교부
방사성
업계가
주권
차이로
only
회담이
##퍼드
돼서
최병
2025년
전거래일
##상도
##겠는데요
##르도
개선하기
##bs
논산
도피
##장벽
IN
분들은
친구가
은행은
좋겠습니다
##크의
##위한
한승
시스템의
탈세
##뮤지
말았다
30명
끔찍
##휴양
참전
정당이
양당
##ress
##수렴
70년
전월대비
트위터를
보물
형편
저조한
##렌트
국가인권
거듭나
무리하게
흐름에
지정을
국면
교사는
자기가
##시스템은
##2만
##설턴
##공원을
질의에
인원을
임시국회
강종
##중앙은행
##폴리스
KCC
실형을
특별수사
##충남
##변화에
ABC
잡혀
요구된다
포켓
##부인
##손실을
대응하고
들어보
기기를
안팎으로
러닝
경영권을
협력이
news
some
바나
##마킹
것이죠
호소하는
씨도
과태료를
컴퓨팅
당선자는
탑재해
400만
##음으로
세미나를
전문성
아반
##프라임
고가의
사용될
##ision
만족도
부속
모양새다
하늘을
형상
지속하고
기적
자유선진
비상장
소비자물
주석은
일어났
우려의
한국타이어
금융당국
##내륙
계룡
##묘한
순이익이
상임고
올라갈
엄중한
피해자를
베타
번씩
하나님의
incre
118
디바이스
개편을
##OL
데서
민심을
##지구에
논의한다
경품을
여당은
##발적으로
증가세가
여성과
타운
##센터로
##회전
##석유화학
불안정
자율적으로
달하고
전환했다
남아있
수제
모을
##수술을
인수위
쿠데
BI
교내
동반한
##특보가
그릴
##소스
흔적
보호하는
##파이어
어머니가
얼마든지
신용대출
이벤트가
설명할
이외의
합병을
놀이터
##니가
추진되고
예고했다
당신이
발견한
성향의
cap
첫날인
##츠는
인지도
바다를
##6개월
국제선
##생은
시작했습니다
활짝
스타일링
났습니다
리베이트
SKT
할머니는
윤영
장흥
##카를
안상수
에볼라
사람에
변형
마니아
도입에
빌라
아니기
서귀포시
다산
##카드의
##구치
설명하는
연설에서
##경과
논란의
태권도
드문
스포츠서울
##25일
##한도
찾아와
강화하기로
가열
노회
##라디오
운영하며
뇌졸중
가정을
여론의
공개하는
불법으로
설치했다
##등급을
##장터
거취
폐쇄회로
나이에
##영역
없애고
40만
회장으로
부합하는
박수를
##여겨
양천구
##eth
2003
뒤에도
##29일
펀드에
패션쇼
##ization
##리밍
쌍용자동차
걸어서
가동을
통하여
진행하며
폐암
Samsung
금융위는
위스키
##투자자
##았기
군민
개발자
잔디
동계
떨어지
거장들의
##이지리아
전액을
수익성을
주에
늦어
코로나19가
##태를
##선인
시와
##청장은
체인
1명을
커피를
이호
한국무역
감옥
##27일
##지역이
평소보다
##말이
혜택도
연임
하는데요
##워야
NSC
형성된
필요합니다
운영되는
시에는
호재로
작성된
묻고
말하면
에릭
정차
도로가
힘으로
전문인력
##2억
사막
강화해야
##분부터
획득한
전국경제인
언급을
프로젝트에
##기업들의
받아왔다
부당하게
하락이
못했다고
요즘은
##금에
경쟁사
유비
##eration
##파로
##틸리티
주가의
##러스트
수요일
정신과
곤충
유감을
이슈를
어우러진
야심
알려지고
평가된다
실속
3세대
강화한다
시행한
##만6000
배우자
##웠습니다
포괄적
##emb
##필드
##교수는
발명
시작돼
##인정
인내
정몽구
폐막
달성한
임기는
건강하게
##교는
행렬
##조사는
평상
걷고
일시적인
소망
대한적십자
##불을
대기오염
##대고
요원
있어서는
##지구는
하려는
##구속
아사히
##의견을
##국세
휘두
소설가
로부터
양주
1970년대
관계자들을
##걸음을
자전거를
발목
김양
##alth
신사업
발행을
고객들은
발언으로
만장일
부동산을
강변
Ass
##만4000
접종
확대한다
삶이
##ject
투자하고
##언을
기대되고
끼어
day
추기
눈여겨
톡톡히
##식물
박창
신혼부부
밥을
##사상
판결에
##ru
휴대폰을
우울증
코스피지수가
오로지
지속되는
##상황이
김영란
##혈을
관리와
간절
##고로
##피해를
1곳
운행을
##선수권
##했음을
21대
##느냐는
메이커
드릴
현실적인
여기에는
쪽은
전동차
숨져
5시간
소득을
덕에
모순
은행들의
업소
이용자의
담임
##다이스
인수에
세우는
선발한다
##포로
정치의
라이선스
차림
기억이
안전자산
선물세트
가정에서
70대
무차별
터보
성분을
전략에
버냉
별개로
비선
나토
123
천재
엔지니어
아을
강간
관절염
개선되고
call
자리잡고
주제를
아파
식별
##ering
중시하는
확산으로
indust
##령은
증가율을
화순
우연히
연행
##되지는
부분이다
지급한
보일러
부위
GPS
기분이
재즈
기대감
발라
대학과
Part
선거는
여왕
개점
금융지주
##적이며
##제이
5명을
근린
수준이었다
있었으며
소문
무엇일까
1년이
결정됐다
##대역
반경
집착
규모인
##1만
베이징에서
힘써
행정부의
평가받고
어디까지
표방
##직은
지장이
기밀
변경을
청약을
안전보장이
##금액의
총괄하는
폭스
추진한다고
##저장
생활에
상승했고
연석
##억원이다
##차관
##난방
결단을
1000여
와이브로
##자산관리
사채
유지를
스승
김범
비슷하다
Ph
가족들은
##ft
##카는
도로교통
##부한
향하는
얼굴에
막바지
정치개혁
대접
책이
되기도
황사
보이스피싱
실패했다
통보를
##놓았다
건설에
군수는
컨버
걸었다
차지한다
##오지
스피드
가사
의원들
##단지가
23개
사생활
##뉴타운
유모
##케인
three
이완구
폐지를
응답자
##처드
복지부는
조사했다
2조원
나이지리아
결의안
구이
참석하고
완화를
불은
일삼
while
기생
초빙
투자자들에게
시청자
##방재
시트
창단
더는
초보
##ml
렌즈
##펀드의
태광
외교장관
페이스북을
당선자
증거인멸
사이트에서
움직이고
영화관
러시아와
7억
사명
막상
절충
bo
통치
네오위즈
##초에
들어왔다
미래가
성적이
##9개
##러드
현금으로
천천히
농약
견디
##녀가
사랑과
고유가
##장비를
모델들이
매직
도울
풍성
신동빈
##원까지
수은
직거래
끼고
이머징
환경과
제한이
계좌를
기본으로
즐겁게
가져다
벌어질
연결되는
##ev
중년
##수권
##AT
묘사
2시부터
원심을
관계자의
광진구
지원도
밝혔지만
##4만
대웅
global
미스
5가지
지방이
에이즈
85㎡
도시철도
아마도
##추는
져야
현실에
시국
자의
유지될
행사할
경기도가
##enter
이도
발견해
2007년부터
2015년까지
거래대금은
표정
##시장으로
5위
한국으로
##증시
꽃을
몰랐다
일대를
##4백
휘말
정면으로
매번
압류
업종의
NHK
프란
발생했습니다
재연
##사례를
파행
연휴를
근무한
발로
##학교를
계단
샤워
전문업체
판결했다
것과는
아름답
B2B
실효성
경진
##감정
##인사를
협상의
##t급
문구
선고한
전화로
모습입니다
방안으로
##선까지
기습
이야기는
아버지는
지원금을
주목해야
선체
수혜를
맛볼
##강원
않고도
미술관
흉기를
주머니
부인하고
일부에서는
도약을
태우고
1분기에
가슴을
작성해
군대
식당에서
예방접
##전문대학원
1주당
##운행
상당부분
적다
##클래스
공개를
시스템과
행동에
##범죄수사
광복절
남아공
##배정
##유도
버린
##세스
생태계를
##병원의
고품질
기침
##지난해
기자와
##상위
##방과
산업부
파문이
악재가
비상이
##연주
국민건강보험
중점적으로
대검찰청
개각
KOSPI
유착
회원이
무게가
맡는
농업기술
모델의
KEB
우려에
이재오
CR
증권사의
행장은
자본금
달아난
탈북자
벤치마킹
여론조사에서
경연
파면
노원구
##1부
##색으로
##하려던
입주자
##규모를
##데시
순조롭게
생체
전환이
회의에서는
내부적으로
포트폴리오를
무능
이대로
지나는
분량의
##연구센터
수서
유시민
대에
MBC뉴스
정체성을
3당
지점을
##처의
양성을
구원
줄었고
만기가
통폐
제3차
##신경
##때문에
이례적인
첨예
코스닥지수는
차라리
부담은
##선박
녹아
##예탁
##겠어요
민주주의를
제반
##재와
##원칙
강타
내신
전한다
책임지는
한명숙
논의한
##버렸다
적자가
##11일
##위원장으로
때로는
비무장
존슨
관계자도
시작한다고
쿠폰을
Man
공짜
##외환
영산
장갑
태운
기여하고
##소인
도발을
##아시아나
##아무
##16일
##항목
피고인
조금만
크기가
작용한
##격은
##론과
경의
지방에
체결을
돼지고기
##제품의
악순환
한지
팔려
명확하게
##쓰레
작고
##복무
##배치
##다오
##당했다
토론회를
수사하고
##ized
##데도
시크
관계는
경희대
3일까지
둘러보고
들지
트레
사단법인
상한가를
에티
정기예금
##분야에서
불쾌
빠르면
##필립
##stit
경기장
이산화탄소
법정에서
코카
수련
방제
겪어
세무조사
##여건이
강화될
##EN
알레르기
마련한다
통계청
##억원과
고민하는
직후인
달리고
##MP
크라이
그치고
성주
공동성
문희상
117
공로를
성장률은
##echnology
##출신
##메일
##00만원에
동조
촉촉
##회사와
전환할
정치권이
2013년부터
불우
의뢰해
떨어진다
강남권
부산국제
Asia
칠곡
6배
사업화
이견을
##만7000
##정화
초음
핵실험을
GP
관광객을
사이클
인도의
발굴하고
비핵화를
##겨운
3위를
##구호
엄마가
PK
##페어
노컷뉴스
발맞
자매결
##irect
왔으며
##니의
미르
1위로
조흥
동창
환상
##93
공장이
신용등급을
##투기
4일까지
국가정보원
##5억
국민참여
##운동의
고조되고
현충
최저치를
계기
##6억
청라
##대학교는
투명하게
아쉬운
창출에
##건조
내년까지
전후로
##가들이
##아래
올리브
버냉키
##보이
##메리카
이씨가
경험한
밸런
워싱턴에서
프랑크
남기고
공매
그룹은
셀프
중요하게
홍콩의
방통위
무사히
##마리가
elect
##che
SP
창녕
증세를
보고했다
농림수산식품
낮고
에프
통신이
윤석열
다시는
##회사로
기업공개
강릉시
감소했다고
24개
푸짐
굳건
##26일
금지하고
종부세
##심에서
4년제
중징
샤오
이유도
아태
규모와
##제도는
##음과
국왕
낸다
##걸이
임직원이
연산
무역전쟁
용기를
노린
##주세요
한도를
마는
선정을
하니까
달러가
중요하다는
업무가
##시죠
우리은행은
아내가
글에서
이웃을
매장에
코어
##점포
극복할
##위원을
##취재
솔직히
다양하고
웨어
전대
주신
응하지
통계를
##의사를
2일까지
직접적으로
콘서
등장해
##과학원
얘기도
##객들이
공무원들이
초월
김두
곳의
국민투표
부사장이
구축한
##6백
서울고법
도입하고
##wn
##협회장
포항시
가치와
프로그램인
사태는
생기면
교민
인피니
경제위기
늘린
선풍
이용자들이
윤성
##ri
몰입
DTI
##이어야
##ally
내렸습니다
다친
방출
답변했다
표정으로
듣기
예선
아이오
##수업
익숙한
무지
수락
뉴스가
##계로
##해왔던
##일보는
백령
아반떼
속옷
지켜보고
공급과
역사적인
변화하는
슈퍼마켓
전반을
##계획이
취지다
임태
말하며
##적이었다
소신
일으키고
전가
밑으로
sur
중산층
주관한
경쟁에
##시장에서는
사업비를
##8백
##aj
고려하지
##내역
안타깝다
에이스
##8만
노동자의
되지만
우즈베
시장도
##성모
직원과
됐으면
검찰개혁
귀여
##사이버
##커녕
변동이
부부의
하락해
포기하고
을지로
눈앞에
그런데도
선택이
##카드로
해적
##터로
데에
외부에
##ience
노회찬
##간부
##단지에
실은
견지
340
80여
신뢰가
추이를
잡힌
##ull
3월에
투자로
결선
총액
상승하며
도착해
나우
신용보증
환원
혈관
변동성
##명도
바그
생산자
이해하기
예멘
푸르
함정
뒤따
처리에
도시바
조윤
공언
개가
##마루
관측된다
니혼
배양
않아서
모터쇼
인준
개발도상
##부문은
개량
보장을
습관
공인인증
필기
상품권을
발휘할
##14일
5월까지
재정부
##메드
##적이라고
네트
##12일
딸기
계획대로
어닝
##의의
것이지만
##분야에
지원으로
매일경제
##류와
##인지를
##iew
1억원을
조언을
구글은
해소하고
견조한
##스코리아
##죄를
##하자면
일어났다
헌법재판소
resp
부산을
EV
한국은행은
한국산
미쳤
태평
##오카
전의
##시키며
적용돼
계정
##강한
중국으로
수사는
부른다
기부금
축산물
이씨
노사가
위치하고
추천한
건조한
진행중인
동력을
##2P
피부가
학자금
호황
환자와
##동시
##봉을
개발사업
사이즈
소개한
용어
원형
탈피
1건
50개
실시되는
현저히
다들
##이었으며
##ern
마카오
구할
북서
카라
시의원
진술한
논의하기
홍보대
지금보다
지급을
##상자
이우
상생협력
차지할
소홀히
소재의
##방향을
##meric
메릴린
투명성
대통령과의
도와주는
##기초
전폭
Ad
##모터쇼
와중에
구간에
의제
국제회의
##시위
them
방송에서
비하
##처로
보리
업종은
##일로부터
요청이
약국
##세력이
그로
표현의
방통위는
##소득이
이하인
BIS
콘셉트
거야
지지부진
##세미나
소외된
인포
태극기
정기국
Mon
수사권
##레이트
예의주시
관행을
강하다
대안이
##안정을
형사합의
무슬림
초강
실세
증평
이양
##les
전승
시급하다
경상수지
돌이
여야의
영상은
운영체제
원내대표의
서재
와의
실장
공방이
레바
25전쟁
##주들의
파이낸셜타임스
가구를
통관
대선주
기숙사
##됐다가
정례브리핑
그렇죠
초고속인터넷
진출해
자신은
집이
악화로
그늘
주인공은
스티커
붙잡아
##지역본부
바다에
##두리
철새
플래그
감독을
재건
편안하게
한미약품
밤부터
운영한
##베스트먼트
최연
가닥
용의자
전문가와
급격하게
##실장이
요리를
있거든요
부장판사는
면접을
##계선
통증을
정현
정쟁
행정부가
접촉한
##AP
단계를
대회에
##라톤
표현이
농구
후발
숨은
이야기다
렌터카
사라졌다
상품과
국가들이
단골
일한
책의
스틸
건물의
치른
5㎞
딸의
문제점이
원재료
##론으로
2월까지
셔츠
##손해보험
##웨이트
##중이
##OM
넘겼다
의혹도
##선대
비공식
##기금을
##내과
돌파한
대공
4월에
But
##조치가
협상에서
진행을
생각도
끌어내
의식한
새겨
National
oper
Su
많다고
비해서는
많았던
전기요금
무엇보다도
##네트스
##제과
프레스센터에서
인간이
2006년부터
불균형
건립을
독거노인
##ump
손보
약세로
관계자들의
설비를
##19일
언론인
256
##보존
감소세를
도가
##회담을
한국교
##문제와
타격이
##00억원을
띄게
불편이
##만달러를
생보
은행들은
감행
못했고
##발로
시도를
소비자를
부과하는
사례다
바쁘
##생들이
그랜
8월에
죽을
##들보다
##교육지원
재판에서
세상이
제때
3차원
아이파크
명목
스킬
##정신을
초점이
다크
추돌
##방송통신
##아니
Americ
##반도
##7억
3선
후보들이
산하기
한차례
민노
재택
추진해야
거는
강점을
학위
전향
동종
건강기능식품
현대차그룹
##ral
##2동
##2차
효과로
희망한다
##편성
육박하는
inf
패소
선정할
각료
개혁의
직격탄을
공용
LG생활건강
전립
어촌
관계자와
정은
토론회에서
방위비
근로자가
##18일
##니지먼트
수사와
고용보험
대표에
현대차가
악수
##obile
입어
두피
참가한다
##────────────────
##플라자
일어나고
파악하는
주역
개인적
옵티
##시에는
##심리가
배부
될까
구청장은
살던
##인하
한국철도
끝내고
경제활동
나에게
기록했으며
7월까지
심리를
##대표가
도난
경쟁에서
수치가
상황에서도
일시적
##운동연합
10월에
관여한
고도화
몸의
기무
인터내셔널
학생들과
위협에
##확보
##미에
바라보고
##rap
제거하는
공략을
분석에
넘어가
디즈니
재료를
내걸고
##사전
반군
방송이
범국민
전역에
par
소환해
갖춰야
비판도
조찬
##파일
##리스크
압도적인
500원
거부했다
계속된
출시한다
제한하고
합격자
장담
##불교
경제민주화
유발하는
##행사로
양파
자체는
##고교
##간이
부하
##내며
드러났
노동부
장소에
반영하고
이동하는
표준화
장군
##립대
시신이
인정받은
화백
지역인
턱없이
자민련
불매
두달
시작했고
##경기가
캠퍼
돕는다
##중의
온몸
악수를
##1백
시설에
진행돼
rea
응답했다
맛집
사정을
##경민
달서
기용
원동
##자원을
침범
폭넓게
단편
학기
##박사
통해서도
##방송은
지적한다
리츠
매력이
경청
끝이
함평
수반
##기구인
무분별한
시선
##소환
장기적
잔류
의료비
유지되고
##구제
일부러
집합
거북
고효율
리처드
##MI
토양
##영이
키움증권
혼인
목재
##휴직
##두천
악화될
취득세
##나가고
##공은
휴업
실종된
3사
##건에서
점진적으로
읽을
6시간
영위
추가경정예산
파악한
KTB
가정에
정식으로
plan
없었다는
##할까
##라노
##거리에
##취소
푸르지오
모닝
검사장
소통의
사항이
##대투
##터의
##납니다
##되길
모이는
판매되고
외교관
재정비
이가
2005년부터
판매해
채택했다
협약에
중앙일보
다이아몬드
사흘간
##2년생
기대하는
상근
가슴에
##ings
현대그룹
있을까요
취지에서
이목을
중소기업과
유정
한약
각급
한국토지주택공사
노리는
##수사를
##농산물
원서
##꾸로
지방선거에서
총영
됐지만
공약으로
##타당
성수기
발행하는
이라면서도
##기자EMAIL▶
행사장
소득공제
거칠
##관리시스템
혼란이
상승과
있습니까
##왔다는
제19
##시로
의사결
공청회
조사와
부진을
고강도
애완
##현안
지지율은
울주군
흔적이
##시장위원회
창의적
구간에서
파라다이스
선도하는
확인해야
나만의
##바오
축사를
자체에
##베이거
온다
판매한다고
##7백
##염을
010
##출력
##급이
dem
아니까
영화는
성명서를
경복궁
최태원
여드름
##라이드
##이었다는
UCC
급락한
성장해
보이기
##17일
500억원
청도
##마력
700여
무더기로
점포를
영역에서
초선
구속했다
아날
##변호사
흡입
CNS
어밤
표시했다
해줄
달콤한
미치고
대구의
김철
##사항이
추가했다
##OUL
##쪽에서
중앙선거관리
방송사
치닫
근원
질서
##분권
역임한
제주특별자치
가상현실
##비상
국가로
학교와
Sec
마곡
봄철
Che
연도
모던
정당의
고온
깊게
측면에서는
자동차부품
긴장을
위해서라도
##alk
양심
상기
바에
국방부가
장의
적임
습득
미끄러
##2회
시행한다
충분하다
지루
설계를
장래
노력해야
##추세
##종목은
이유에서다
11년
과감히
##블로
규격
용역을
10명이
철회를
세미
##1회
##수지는
교양
주주가
##세력의
사라지고
대처할
스토리지
구입하는
의원회관에서
##ott
HSBC
의심되는
질환을
민원이
법의
변환
사전예약
발의한
포함하는
##감소
사범
발전의
##해외
##조각
##very
달이
##행사에
표창을
내에서도
113
원대
고3
나오기
def
참가를
이마트는
도시에서
시각도
판타
방문은
##ible
##약한
탐구
연속으로
동지
LP
설사
감성을
암살
##민원
##장기
NYT
구매를
양념
##가중처벌
폭행한
9월에
##원식
정착을
관통
촉각을
하마
영결
사용된다
라스베이거
사유가
승마
감리
대책은
구석
있어서다
이용을
황우여
가요
법원행정
##ounc
게임으로
20억
추대
힐스테이트
iss
어렵지
IOC
화재로
1세대
##렉트로
모습도
직원들과
가리지
거론하며
##eign
높기
모색하고
투입된
특강을
기대하기
380
##지원과
동거
주식시장이
포인트로
했어요
청각
국가안전
효율적
이정훈
290
알림
무대에서
##GA
##향이
마디
정부로부터
출혈
6도
필수적인
##공고
116
수만
Comp
재정경제
발돋
모임인
선관위
##학위를
기술력
기관투자가
수자원
백운
과학적
SK텔레콤과
재개를
창출할
##개국에
2022년까지
청소년의
TS
충격이
안의
의성
지표가
인생의
소비자물가
##점도
made
##성분
만족도가
논의될
행사의
내역
곡물
지역에는
the300
응답은
차량으로
경사
관계자들과
##00명
##ival
1000원
천정배
기사가
##24일
고구려
펼치
열정을
##land
거꾸로
숙명
악의
증세
환기
수박
##ently
##닐라
주호영
##차원에서
차지해
90년대
지방정부
오징
지난해말
지름
숨졌습니다
하계
##군에서
농도는
##환율
##능력시험
1일까지
##마이크로
레바논
애플리케이션을
A3
관련해선
금융당국은
공권
system
운영이
##formation
경제적으로
스트리밍
무궁화
IAEA
악화된
형사처벌
##경로
진전을
건교
일교
50억원
should
내몰
아이는
전년동월
결단
##건수는
##iet
##협의회를
##차입
한번에
경제적인
오라클
5월에
강소
먹은
NAS
다쳐
##물품
우즈베키스탄
##공연을
##ales
동백
##urs
850
세정
##13일
가격과
조용히
마이스
하와이
##기술이
코트
##1억
##나들목
박광
DC
벗어날
이춘
두꺼
독보
무사
##전자는
기대감에
것이지
옮기는
조사됐습니다
##살인
##집중
루이
##실무
편견
탄생한
방안과
##단지는
알리바바
##조원에
쓰러져
검찰총장
##기자EMAIL▶네이버
제도로
구축했다
손익
##사회에
예방할
싶지
##신라
구글이
과정의
그룹이
노년
서한
##예측
알아서
확고히
##층으로
##22일
지표를
사인
부근에서
출입국
블루투스
이름의
수평
##계산
##하는지
##만인
초속
비방
금속노조
위반으로
시장조사
관계자를
대대적으로
우려는
아부
무섭
펴고
증권선물
신산업
정산
하락하는
접근을
##산림
앞다
##필름
Eu
호소하고
##비시
연구기관
만회
##면은
무언
현황과
북한과의
주택시장
연이
특별검사
남편의
춤을
##투신
변함이
인스
##서버
아날로그
##리칸
##1동
혈중
승용차를
초과하는
성실히
##주며
맡을
tv
포함될
##봉사단
##23일
##베리아
주식투자
정론관에서
등록한
과거에는
당사자
##ular
여사는
시드니
순자산
떼어
##4억
제소
후원하는
인체에
정종
국가들의
기차
리스크를
##망과
##돌고
반찬
사회적으로
없음을
특수관계
##캐슬
시레이션
몰두
##상사
##ric
##프닝
순위를
##실련
할머니가
쪽에서
우버
오송
하나대투
##주의에
##경선
##리스타
처우
삼성바이오로직
국회법
입당
##메르
##책에
초연
공급한다
적을
적재
사람으로
쿠웨이트
##놀이를
모처럼
내리면서
가던
약간의
사안을
드디어
##현장을
1억5
완료했다
most
##inister
추세에
밝혀지지
##합창
통하는
##3년생
##아무개
##구입
대학로
5차
플레이어
기아차의
##사리
손수
PEF
일간지
마을을
선언을
언급하지
물밑
6백
##복제
아이폰6
해달라
서강대
##나의
방과후
##ief
##결혼
##시피
##대왕
##처리를
마이너
제출받은
연결돼
##∼201
공격에
부산에
##명대
국무회의
누리고
어렵지만
제3의
두번
ATM
추진중인
최모
승부를
##ior
200억원
##정리
대치동
근무를
이만
##텍의
쓰나
죽어
##속으로
걸린다
공학
사고의
상승률은
서로를
국내로
이해와
##earch
장애가
##하다며
제도개선
4주
수출에
평가한다
##혜영
##연구소가
##국장이
##측근
가지를
행사다
화면에
##모는
##망의
바이든
도전을
고용창출
##디스
정기국회
사들인
##5년생
넷플
세계로
시즌을
관악구
역사에
curr
##개발에
예탁
입장입니다
하순
한진중공업
예비후보는
변수로
URL에서
4곳
트럼프는
PP
권성
경향신문
##가지수는
전화번호
##이익이
4학년
경기는
##금액을
상장폐지
지향하는
강해
countries
전입
##운동본부
알폰
효율을
항목을
##공이
예측했다
보드
##금도
##고루
8시간
업계에서
판매된
분야가
##타입
##스킨
보건복지부는
알아보겠습니다
던졌다
since
미지수다
내외의
표정을
벌금을
위해서도
시범사업
은행을
시그니
특급
좁아
##oh
피고인이
시집
친인
참석을
4월까지
##8억
2분
거품
구로구
정도였다
반부패
##21일
고급스러운
표현하는
대유
협의체
##동네
United
##스틸
중수
사고에
낭독
초까지
##통은
##시하는
사업에서
번복
하나씩
투명성을
여부도
잠복
대구에서
의사결정
국방위원회
공방을
당혹
대북정책
##세트를
액티브
노조원
스마트시티
제1야
##더블
미국과의
생방송
##왔다고
당선인이
가만히
##항쟁
스마트폰에
오만
1986년
대마
집회에
20년간
성탄
당면
학문
후폭
소셜미디어
##세일
손님이
호평
지칭
수도권에
줄어든다
장으로
##요금을
##큐브
##째로
법원에서
##강은
동두천
액세서리
##흐름
370
월가
150여
##시스템이
적당한
100일
##병우
전시회를
삼성증권은
트럼프의
##eng
##연하게
1년여
##시대를
상장기업
##비용은
추방
000만
##문제로
대상인
##역량을
평가할
사하
##시대의
최창
집단감염
수목
알았다
##위기가
##ideo
행보에
편리하다
한자
##만달러로
전략은
##심의위원회
버튼을
오픈마켓
단행했다
##리조
막말
목적은
맞추고
민심
클로
##계절
서울특별
##레븐
지원하겠다
2가지
생명과
MBA
##파인
시민사회단체
동요
거울
배틀
밤사이
P2P
##4년생
운동이
빼돌린
표적
취지에
맑고
남다른
수개월
연천
미흡한
선정하는
돌려보
든든한
##str
문자를
비축
업무방해
##등으로
방문하고
않았으나
##DF
2012년까지
제지
마술
해운대구
##모로
##인구가
들었습니다
범위가
예민
발판을
해결될
##SEN
뭐가
당첨자
모친
##카와
2023년
##사업체
실태조사
##전문점
129
자발적인
버거
불안을
가족은
방법에
구간은
50명
넘겨진
주위
주석의
결정하고
인정해
##티의
침체로
결의를
절감할
시행되는
##정권
과기정
##캐피털
there
검진
한국지엠
유출된
생활이
인맥
내역을
##단장은
##항의
동국제
##울산
재정경제부
##문제는
소통하는
##부인과
##전문가들은
센터는
##통과
변호사를
움직임은
규모도
명단에
##9000
사용되고
##속기
독감
통폐합
수교
무기한
##범죄가중처벌
가시화
배기
농수산물
시를
미치
불투명한
스태
가디언
민원을
경제자유구역
건지
##비중이
분양한다
##사이클
드럼
함유된
풍요
이용자는
걸림돌이
이슈로
##주체
##끈한
수뇌
의회가
##테롤
완료되면
##조건을
산유
노력과
정찰
##동해
##기관리
11만
정상회담이
반대를
2010년까지
기관을
떠날
청구했다
녹색성장
5회
보너스
second
##수첩
122
분양에
결실을
단거리
##현재
조종사
##agement
인명피해는
##개방
기반한
부연
센터장은
##코로나
패러다임
난항을
##하느라
10위
조사하는
적용됐다
6월말
였던
##포인트를
과감하게
작업은
##종과
돌아선
##이온
##직으로
사서
불출마
증시에서
주문이
##ilit
마감한
뿌려
유물
자동차의
단체의
##시설도
##우면
말과
13년
12월에
연계된
투자자가
간사인
천막
기술력과
이동해
##40분
ETRI
나갔
확대된다
단장은
펀드가
안에는
활용하면
##이민
##에프
노력으로
출시해
##티탈
병사
금융시장의
운동에
화성시
##창구
비롯된
세종문화회관
생산되는
##방안에
캠페인은
시니어
르네
몰리면서
##례로
##오쇼핑
2∼3
울릉도
자금은
##균형발전
후회
백인
##보험료
조정할
##사업인
분노를
하락했고
내밀
##기반을
조희
##중이며
다큐멘터리
오르면
누워
어면
##은행에
예견
8억
수동
최고위
100여명이
해수욕장
폭설
신한은행은
프라임
이루어지고
##자치단체
##이냐
CPU
##지회
내건
재미있게
5세대
##소싱
시위에
모하
##지방법원
만들어졌다
라인업
조인
직선
##케이스
전기자동차
내로
지중
취재진의
김보
한국경제신문
GS건설
정책위의장은
나서지
이용자들의
##관리가
50분
##일드
로컬
금정
확정할
전화가
KI
사립학교
##미와
could
##기야
홍영
##답을
##대출을
밝히며
방대한
##푸르
고를
주제는
고교생
가명
생산량
하락하며
##사업비
Sc
##기준에
발돋움
##속의
##대1
##특별법
책임지고
인플루엔자
##버리지
##어음
비트코인
노력하는
골고루
입각
가격제한
한국인의
발견되지
심폐
오해를
##책은
이씨의
내리지
논의에
탑재된
무너진
100개
전속
##방법을
예배
총을
생명의
특검은
##택지
##대학의
##ets
오빠
##변이
회사인
FA
공세
추진될
##편한
##6년생
##속도
브셀
오신
무서운
명분
사용하기
5㎜
다변
##ism
##ner
가졌다고
##리브
리뷰
##ollow
정모
어플리케이션
sl
해소될
##anies
단풍
미국에서는
걱정을
교복
방수
수도권의
##이미
곤두세
떠넘
마케팅에
7도
##취득
나라에서
##렸는데
##죄로
나무를
##연동
시작했다고
의결권
##극을
##대상이
##랐습니다
한국사
시행된다
축제가
준비할
래미안
여고
##골을
풀어야
##센터장은
6시부터
건강관리
때를
입주를
필로
##천동
##요리
##폐기물
Fin
음주운
원에서
단어를
전략과
장애를
말씀하신
강사로
화물차
One
낙폭이
곡성
##항은
##reen
뉴욕타임
기록중이다
서울시청
##아를
넷째
KEB하나
잃지
어워드
수사관
8도
머물렀
담화
개포
손목
조치다
이형
남북이
운행이
물가가
원칙으로
금융기관의
##타오
7∼
의상
지질
음향
조정하는
##자들도
##유발
뛰어든
착각
김정남
전라남도
발생했다고
##패널
##기술의
과징금을
자택에서
국무회의에서
비율로
##워즈
매수에
##LCD
검증된
##상품으로
제기하는
##차피
##영장을
금일
기업도
상승은
오랜만에
공동의
15명
##하려다
##락이
유도하고
불안이
메시지가
향상과
착안
창출과
고향인
포획
같다고
임플란
지도를
##처장
##CN
통과를
기록이
됐을
##루를
임을
OSEN
명실상
필요성
마그
당헌
박철
안개
아이들과
담양
퍼포먼스를
영서
보온
##최대
부스를
재원을
막혀
바스
기획재정
##레스테롤
종신
소통과
떠오르는
##호흡기증후군
목회
공감을
주민자치
잠재적
순매도를
맞이해
정신이
격려했다
##만5000원
그다음에
가족들의
##노스
local
숨겨
나라에
she
##겨울
강보합
##으려면
군과
번거
좋다는
그었다
마음대로
만약에
13만
있었는지
안티
유수
##평가는
지원된다
예쁜
ret
서브프라임
집주
반문했다
결정된다
해소할
전환사채
##중개사
이효
##문화유산
먼바다
##자리에서
직장을
Moon
##소형
에피소
##반에
num
자문을
양방향
하드디스크
KT와
수도권에서
결정으로
입에
다가가
서기
머리카
맥도날
국무조정
완료하고
##어졌다
진전이
선장
시비
##통의
##ute
##조원으로
첨부
파일을
##원가
여사
절대로
악재로
iOS
국제공항
낙하산
농성을
##식도
맞벌이
국립과학
노리고
등으로부터
입찰에
아시아태평양
능력과
열기가
##경기장
개정된
188
외환시장
051
##대결
한은이
지목된
20개국
남중국해
거리에서
식재
역할과
##랑스
벽을
극단적인
trillion
한자리에
이코노미스트는
지방선거를
420
##에겐
백승
개선됐다
참석하지
시행될
AA
구명
문구를
##참가
활동은
신속하고
명도
확보와
부모와
비로소
부위에
충성
유가증권시장에서
느껴지는
교재
모델하우
##배송
털어놨다
듣지
Sa
교감
##1호
서민금융
출신이
따돌
##주들은
##지역과
90년
유도할
윈도우
##하죠
##직에서
서울시장이
사회적기업
엘리트
번째는
어차피
##캐스트
##협의를
이공계
피력했다
보호하고
이사회에서
세울
##청약
##가지를
학살
##공여
나아갈
들어서고
하우
##프와
판단하는
2014년부터
트럼프가
법조계
않았으며
##선언을
이전의
##란도
차지했고
최문
리드
나오자
동대문구
유리하다
고작
회부
펜션
허위로
프로듀
##IB
운전면허
##지오
쥐고
1년을
##리버
종식
고덕
마무리하고
형성하고
어머니는
윤동
수상자
공개한다
개조
엄격히
임명된
ISO
얘기는
##항에서
##휴게
유람
##론도
임대차
무너져
요르단
20억원
은행장
싶다면
##보스
##복음
투입할
현실이
전월보다
혁신과
진열
80년대
##주차장
바로가기
시장경제
누구보다
삼성과
앞을
무너지
##축제가
편에
정액
축제는
##모닝신한
포기한
전후해
이인영
유럽중앙은행
##게이자
갖출
6가지
성과는
기금을
사이드
아동학대
##병수
모델에
my
##분담
공기청정기
평가에
법적인
##난에
##시기를
1985년
유화
시작하면서
제18
##과열
##증가율
나이트
선거운동을
청문회를
끝나지
다투
오대
분야에서는
범위에서
밝혀야
##aking
모건스탠
장사
게시판에
한국도
kn
역부족
단기간
합친
금방
유발할
바비
##워진
승합
감소해
호반
강등
차단하는
사실로
친척
세력을
잃었다
절단
닛산
했는지
Res
##2000억원
저질렀
충돌이
##는다는
통합해
택시를
형성돼
인천시는
강세가
부른
회장에게
축제의
##사자
예금보험
분양권
보스턴
안녕하세요
본회의에
즉각적인
비어
도착했다
특별감
용량
삼겹
들러
토지를
새우
각오를
표절
피켓
과기정통
더불어민주당은
등장한다
객관적인
금호아시아나
청년들이
자처
##당인
따르
공격이
유동성을
가구당
경계를
손안의
##제휴
김부겸
##평론가
##본부에
가구에
2015년부터
SL
##펀드를
8뉴스
미화
모멘텀을
당에
##총액
대책에
밤새
표류
시립
나로
##질과
우려와
need
올라와
편이
상업용
강경한
##개발연구원
주민들과
돌아갔다
##사고를
##동생
##병원과
거쳤다
해볼
주문을
##회생
어디로
논의는
계속할
disc
전망되고
국내의
동기대비
그라
예산안을
오전까지
관계로
직불
천연가스
출근길
영업점
엔지니어링
전쟁의
##기구를
문건을
구속영장이
자재
정신건강
요구해
그치
미처
국민은행은
문성
사회로
##사항에
니혼게이자
것이나
이루어질
봉화
총재의
##민속
경선에서
남양주시
볼턴
빌린
차가운
This
북측이
반가
식이
##600
중앙당
##장으로서
##사고로
##위기에
외벽
권한이
해발
춘추
인물을
##리거나
##우선
통상임금
##항으로
범죄에
급속도로
동반자
블라디미르
거두고
약보합
부담해야
1천5
중저가
##역세권
##urity
이날도
기관지
주말에
담을
잃어버린
여기저
똑똑
9억
헌법소
생기고
집중된
서명을
계속하고
저수
##용수
##아서
foreign
분석되고
도입이
전통의
대학수학
시작을
고소한
연재
위주
의사의
구치
상회하는
##우회
국공립
때에
인사에
##리언
##은행을
건전성
##진흥공단
##톡스
##톤의
박민
기흥
##되나
이브
전반의
결과와
저탄소
학부
기록했던
##강사
운영과
스프링
대가를
주민투표
##전공
오르내
침대
고질
가이드라인을
생선
##예비
명절을
##불안
##연합회는
원내대책
옮겼다
접어든
주면
카드로
1위인
오키나와
##구청장은
GS25
물질을
전이
백혈
확대된
지방을
480
week
네이버는
해석을
순수한
제압
PR
같고
통신장비
의장을
고용을
영상으로
폭행을
운영자금
필요해
##제리
무시한
수위가
CJ오쇼핑
##기관에서
##elf
통일을
주목됩니다
신현
의미있는
브레이크
##8년생
##체포
상대방
비공개로
000억원
두지
양사
##쓰고
그다지
센터를
문정
낮아질
소행
##ered
압구정
영재
한국당이
총파업
때문이었다
한반도에
##성이나
확산되면서
##슈퍼
##료와
캐리
여사가
관련업계에
단지가
##총연합회
BBK
가입자를
기조가
중국과의
스리
세척
##셀로나
범정부
목소리로
속하는
예산결산
올라가는
늘었다고
허물
국면에
##필지
4분의
안은
동급
건보
휴가철
하경민
GM대우
##리기도
##연구회
연합뉴스TV
행동이
해주고
분비
급변하는
침체된
스타일의
올라왔다
유통업체
이니
도구
추위가
문체부
top
##화돼
속도는
채로
날카
이동전화
MOU를
컸던
선착순으로
파트너십을
금고
TV와
확대되는
조심스럽게
economic
존엄
##느냐에
의해서
로보
##파와
국민의당은
1만4
소유하고
방송인
해결책을
##다니며
높습니다
티베
##터와
스마트폰의
분실
문구가
##지니아
##린지
자연과
들어갔습니다
이순신
의도로
대해서만
지도부의
전역에서
태워
출시하고
자신도
결정한다
공영방송
##ages
##탄이
산청
VOD
동방
##터에서
##타당성
나간다는
눈길
프로세스
낙태
신주인
인도분
영화제
산업생산
체포된
##리포니아주
쏟아지는
단속에
한산
지금이
밀레니
외상
원장의
그래야
말라고
보였지만
##습관
오디션
progr
차고
보편적
##텍사스
강렬한
##부담을
장충
비판하고
검토하는
POSCO
##ven
27개
##카르타
사유로
2017년까지
주민들
긴장이
다음달부터
성능이
까다로운
##경제연구원
박동욱
##ble
주민을
진상규명
치중
메디컬
왔지만
최은
민주평화당
만장일치로
항공권
031
관공
동남권
##법인은
급등세를
인사와
##ouse
세계무역
역을
##전드
##코의
문서를
##주의가
의견수렴
케냐
액정
선수는
순이다
##틀랜드
계엄
##oung
##비밀
##협의체
브로드
국민권익
동기보다
구의
##일레븐
치명적인
총선에
##호르몬
유령
비리를
한국농
대표단
차관이
자연의
구비
불합리한
적십자
##아메리카
##지사와
이사를
상류
인터페이스
##매가
재일
전까지는
방법도
안도
전한
살림
신한지주
세대의
공급되는
내한
인터넷으로
##건전성
협의할
협상은
1979년
갖지
##산성
사무총장이
겸임
광학
못한다는
##부담이
##ale
##수준을
사업부문
##보조금
생산해
##금지법
웃돌았다
식품의
언덕
분명하다
강조하면서
답하고
물은
##루스
관심도
##행진을
몰리고
있는데도
##진다면
급기야
불분
##기술과
웃돈
근무하고
사라져
특색
set
현재로선
총동원
수장
돌발
애를
##푸어스
증가는
리먼
승무
세법
무형
제정을
경우엔
##1년생
근처에
플래그십
##주신
채택한
205
날은
##상선
##율과
먹기
서포터
##ense
쉬는
사고와
시민들을
부적합
카트
##가스를
미래창조과학부
과의
모색하는
거리로
선거관리
##수련
회사와
##uth
기호
##연구원에
편향
적기
일손
거론되는
대구시는
누출
공적자금
따르는
은평구
##터에
시상식에서
four
급부상
##카드와
시민을
재경부
실업률은
##율로
헌법에
시기와
묵묵
지켜본
II
##마드
전국으로
##3회
기득권
입주민
##업종은
분사
알겠습니다
##력발전소
요인을
##안에서
면적은
3기
워싱턴포스트
next
##히기
발표와
##arm
한동
##단기
어린이를
국채선물
##스텔
번호를
두드
구체화
김덕
정보의
##버리는
##MD
##쿠니
아시아의
쿠데타
뛰어나다
##라서
재산세
법정에
9명이
##직업
##혐의로
위험요
##ox
보도자료
관측이다
스폰
알카
EMAIL▶
못하다
장난감
스마트폰과
사거리
기념하는
삼청
제공한다고
##소독
서울지방경찰청
장학생
콘텐츠가
##연구원의
지금처럼
95년
##소식
거세게
돈의
##바람이
배석
미투
##해야한다
스마일
companies
용서
시장에서의
부족하다는
##단말
제3회
복수의
##파티
정치권에
오차
분쟁이
거부하는
##피크
리듬
장교
외부에서
조현아
유산균
신념
물동
사연을
##기나
적절치
제설
모습이었다
##교대
계약금
##아프리카
최현
희망이
적금
노동시장
필라
경협
제시한다
중요성이
##군인
명명
일어나지
##취약
없는지
well
길고
시장에서도
다닐
##발표를
강호
허술
선별진료
길러
대형주
최승
trans
응답한
##하겠다며
옮겨져
##줄을
##중심의
중에도
부수
가락
##청탁
카다
평화적
쏟아지고
디저트
선불
넘길
환호
피하고
치우
재산이
투자자는
케리
북한인권
국경을
##저지
방글라
중이고
##한데다
##연락
영어로
기간제
선임했다
등에서도
##플로
신학
##오면
장인
끊임없는
점검해
행위로
반쯤
##시스템에
6명의
##ao
##인으로서
선출된
밀린
롯데호텔
국제유가가
ON
##사회가
갖추게
흥미로운
누리과정
콘퍼런스
##상권
내리겠습니다
드래곤
금융권에
자유한국당은
G7
전국을
사의
유니버
컨설턴
##t의
염증
##30분부터
맞서고
##김치
##점이다
매출도
해법
쓴다
예치
예년보다
포함하면
지혜를
전력이
부동산114
아파트에서
금융당국이
##티콘
##손실이
원내대표를
##버이
##사로서
대통령선거
문예
취미
제기되는
성과급
선택했다
코트라
의결을
아름다움을
이남
모은다
발간한
7배
캐스팅
##대성
워커
살릴
하루빨리
컴퓨터를
NP
전개하고
차량용
느끼지
##대상을
안타깝게
노동자들의
4명은
경력이
이해하는
천둥
국민일보
반영될
국무회의를
건데요
##병과
##m에
##중지
##국토
국가보훈
KF
##7년생
거나
표명한
##오피스
##토론회
여배우
환자들의
지적됐다
시도한
살이
경상북도
1만3
##ames
##다니는
경찰에서
경쟁률
치았다
시도하고
코디
후원금
##정수
우선순
가나
30억원
BW
성찰
시달리고
두뇌
실패를
800여
피아니스트
하루를
##현충
계획인
직원들
추도
##서비스는
꼼꼼하게
늘리기
발인
##eas
##냉장
건의했다
재보선
대만의
방향이
prof
성과에
발생했을
성황
##ecial
##군수는
두드러졌다
말아
노동자들이
점검할
고발했다
의도를
개인별
##픽스
특파
7월에
피곤
박인
##마한
역점을
##문재인
증가했으며
##재현
124
흔한
##tain
##증상
기초연금
비건
피난
도로에
시대적
분양가가
산림청
확대하기로
우려되고
##실습
안락
축사
##평가가
prev
사라질
##적일
이득을
매입한
구하기
##㎞를
##네이
##2000원
방위사업
항소심에서
토니
기둥
얻지
##릴라
내년부터는
##관세
##3000억원
인플레
이상일
의도적으로
풍경을
시찰
인수가
방향과
들어가면
특이
가족들과
##산단
##척의
최초기준
UBS
여수시
##여론
발맞춰
리버
야채
아나운서
주심
정대
##강점
##용품을
##vers
금융사
연방공개
구입해
유례
해서는
추징금
##좋은
어머니의
불명
물질이
투자심리가
조건부
##할만한
##놓는
높아진다
등이었다
해보
답변이
서울남부
2004년부터
##2부
##학교는
##는지에
교수로
A씨와
변호인은
3000억원
딱딱
##업계에서는
##9만
당시에
올라섰다
해결하고
복사
##법인이
NGO
만들겠다는
모티브
종북
맞추기
##gue
##인승
take
미만인
웨스트
##OW
원희
본다면
달여
짧게
국무총리는
##iel
테크놀
태풍이
그러면서도
##mm의
수지
##사회는
##미콘
일상을
##퍼레이션
##틀을
병력
영감을
이코노미스트
호환
불완
좋지만
##AM
##기자가
##9년생
##RC
가르쳐
서부텍사스
##az
2500
전국적인
기여하는
기획재정부는
패턴을
전립선
국무위원
자민당
현대산업개발
야권의
엇갈리고
수강생
6학년
run
차원이
평가도
장관에게
가격제한폭
##갤러리
제한된
회복될
규제에
진출이
마무리할
강도가
허위사실
4번
##시스템의
부진으로
##셨습니다
장성택
출시되는
먼지
말하기
쪽이
##기회를
파악하기
화를
인지도를
잉글
기술이다
##영향평가
##발레
달랐다
시도가
##공대
최측근
최상위
생산과
은행에서
각광받고
분식회계
파헤
고금리
광저우
참여연대
비판의
완료할
분류되는
##ton
이국
정보공개
지형
옥외
선박을
De
반출
박물
상습적으로
농경
자고
##스테이션
##시설인
##장으로부터
##과제를
실천하는
##시경
광주시는
회복할
몰렸다
##주의의
127
빛나는
모니터링을
신규로
gen
일이라고
영원히
##경제자유구역
##날이
##층과
그들을
특혜를
중장년
전시를
4G
프로그램과
일들이
0059
출입을
##우위
장관에
외국인들의
농지
소요될
운용하는
145
직원에게
##있다는
AK
121
##00억원에
부위를
##취재단
##생명의
버섯
구분해
##피해가
풍력
300억원
##쟁이
붙인
생필품
##ives
필요성에
##협상이
절제
충원
##우의
96년
여행사
서천
##ful
편법
무을
선발해
임의로
발견하고
행태를
##PM
공매도
다세대
##운동이
##패턴
##디다
단지로
가파르게
TK
객관적으로
당선인의
보수를
생각으로
하락세가
준비해야
급증하는
##공원과
흐름은
안주
확산되는
비위
활동과
##릿지
밟고
뒤집어
이륙
평년보다
##측정
##헬로
역할도
사무실에
##지도자
30억
협력할
국정원이
그랜저
support
상반기까지
구상을
추천했다
나와서
챙기는
세금이
활주로
고습니다
우병우
서민들의
검은색
청소년들의
옥상
어리
펼쳐진
가하는
시설과
회화
저마다
##레이드를
##chool
장관급
제너럴
등락을
창간
달러화는
조약
간과
통계청이
##사태가
일회성
발코
기원하는
웨어러블
입상
according
교량
##기보다는
주장해
가입자는
방문이
빠지는
이목이
결혼식
##한지
형평성
주식에
스트리트
정책위의장
##나가겠다
그래프
배신
로고
기존에는
반영했다
창출하는
간접적으로
공항에서
개발로
기여를
지지율을
진한
평생학습
남서
스페이스
황제
변함
도산
##오다
CIA
처벌이
뜨겁게
##정보화
공기를
현대중공업은
Ju
##지수를
푸짐한
##한다며
1만5천
한미연합
받아온
충주시
입힌
부위원장은
전략기획
우위
새벽에
메탈
##토크
##장소
##하기보다는
베어
단계별
궁극적으로
if
##발굴
##MBC
한국가스
강당에서
매수를
군을
심플
자유선진당
국가보안법
놓았다
##사찰
6억원
##그레
정권에
##공작
how
##원이며
식탁
##피는
보수적인
전화통화
문제제
전환해
감금
경선에
예술가
어우러져
바라고
##ICE
적잖은
추종
뜨겁다
대화에
##구역을
만이
물적
놓치지
##센터장
동굴
개그맨
형식의
고취
주민은
##단일
##ins
1만5000
##호수
##규모의
양재동
노영
언론과
전통을
##연구소의
규정했다
일주일에
Global
600만
RFID
부산과
날개
소프트웨어를
##밀러
남편과
됐으며
아내와
마실
김규
지나고
지적재산
국제표준
모형
의원총회에서
코팅
내외로
예방과
3호
대정부질
##사건을
가운데는
law
순서
opp
차익실현
##이익은
안산시
국립과학수사
##재단과
통일부는
기을
무대로
도전하는
하반
케이크
대인
적시
향하고
##MHz
현실이다
포화
그분
삶은
세상의
거치면서
help
기고
##수송
##진입
섰다
11조
복선
원어
수주한
진지하게
깔끔한
##볼루션
중순부터
클렌
맺어
##재난안전
이들과
##EL
건을
##하천
교직
강경화
치러지는
지정학적
상계
못했지만
치를
##기능이
실업률
126
극한
하이닉
성도
조씨는
기초생활수급
##교육청에
종합대책
중단할
농촌진흥
수렴해
open
전자제품
한마음
클라
건물은
유휴
강수량은
강제징
##소수
쏟아졌다
전국동시
유가증권시장
특별공급
탈레반
진주시
나섰지만
##칭을
##TR
가지로
##림은
기업에서
##르코
##사태를
재심
타개
자체의
국민대
수당
쌍둥이
혁신의
예산으로
발사한
재판관
##ession
contin
대선에
증축
정용
매듭
스마트TV
김기춘
루머
심리로
인류의
##조직을
노예
제기할
주도의
long
선대위
3000여
한기
##10분
##치스코
##라든지
##서류
인수해
26개
세대가
##rem
상태이다
다닌
##9백
##체제로
국정원의
이후부터
김여
근로기준
화두
처해
개정해
수출의
부진이
대청
남았다
##협정을
관계자에
박은
무주
다룰
204
선물은
크리스마
허니
비판한
##있다고
거시경제
대한민국이
##과에
반려견
1982년
ESS
133
##리라고
제안에
타이밍
외관
재수
신병
무마
지역내
정체가
배당금
공개해
백두산
돌아올
서울대병원
특산
이르렀
사회관계
말합니다
가져온
좋았다
태화
낸드플래
짧아
##버스가
##영의
프로젝트의
국가별
430
165
2000만
오픈을
포기하지
차차
5000억원
세라
외국인투자
신설해
양상이다
##드백
전달했다고
인정된다
셋톱
국면을
화보
담당할
##초교
내국인
##∼1
##무진
##문일
역할은
연장을
##마진
2등
절상
##루는
살처분
김의
무혐의
송구
##확충
어려움에
동상
##씨도
##외국어
투표에
기획한
##행위로
800만
골절
진작
마리가
협조해
전문가인
1970년
기울일
채권형
승용차가
##선교
기회도
##롤라
선제적
청양
최고위원이
##조와
체제가
##CS
제작에
카니
동유럽
대상자는
교육비
월등
일깨
활력
권역별
추천하는
상쇄
수물
##의학과
##ention
나눔의
계약은
20세
매수우위를
선보인다고
##는다면
##업종의
video
회계연도
의원들과
매출액의
알렉산
주소를
25년
##했죠
##압이
2학기
고층
##제거
주석이
전해진다
사이에서는
##강이
과제는
요구했습니다
접목한
연방공개시장위원회
##푸르트
##ㆍ중
주도적으로
제왕
대법원이
인권침해
간소화
##결과에
##기기를
추천한다
주일
역삼동
##㎞의
대관령
잘하는
할인을
구속하고
공모가
산부인과
1주택
##트레이
균형발전
##사령관
의총
31개
주니어
##상태가
구례
어려웠다
코로나19에
눈과
9호선
아메리칸
##000만원으로
##쿠폰
##숙이
##란한
부정부
포격
100주년
활동한
협력의
링크
인사들의
사흘째
2분기에
분석하는
##환을
##연극
대표이사가
피하는
나선다고
미세먼지가
IFRS
##ments
선양
밤을
쓰인
##신뢰
카메
인상은
마무
갖춰져
이스타
추가됐다
1위는
국토해양부
취하는
##피부
##시스는
연구와
식이다
##AAD
고용지표
##수신
전원을
##관리법
어민
성토
무기를
##특수
키워드
##대도
평창올림픽
끼는
최우선으로
노태
판매된다
아파트로
접속해
발사를
주체가
초유의
공연과
고화질
드러날
밀가루
왕세
금융감독원에
남학생
##O는
천안시
##스튜디오
##택트
sign
조금이나마
추가적으로
복직
박홍
코로나19의
##버섯
반도
원료로
##담한
맡기
##소생
##갔고
자카르타
분양한
거기서
##국이다
##ause
형태가
위험성이
##피언십
환경의
구축과
송전
back
##정책연구원
##ize
함께한
용품
드리고
폭풍
##환경에
위암
제조업체인
갈등의
승선
매운
조성될
##트인
BSI
##서비스가
##단가
12명
바르셀로나
##t을
310
공장은
기울여야
##돕기
의회의
##였을
make
상세히
성장성이
##완종
선사한다
줄었지만
스스로를
정규직으로
전시는
produc
연말정산
##공장은
사회적경제
되돌려
흑자로
##되기는
공장의
##기독교
최고가
우리와
##코드를
##태세를
유지해야
구금
농업인
min
##음의
입국한
기업들을
##듯한
80년
모른다는
무색
장안
선고받은
효과와
대회가
화학물질
절반에
확신한다
##ily
일몰
9도
투숙
정리한
##유한
부각되고
##ists
울산시는
비주류
도교육청은
7백
Rep
제주의
도마
열병
완만한
쌀을
바나나
##충돌
청구할
지자체와
등에서는
##세라
이전보다
초미세먼지
저성장
nuclear
##남에
수단이
주식형펀드
채권단은
임명했다
싸움을
##깊은
시점은
작전을
##라이언스
start
520
최적화
롯데호텔에서
거라는
인사로
중장기적으로
1∼2
중소기업은
무너뜨
구조조정이
라이스
활동으로
사업인
중앙부처
물고기
##EI
사업시행
미팅
##파운드
아마추어
하려
##특화
##제출
한국전자
서울시에
초기에는
모색할
MMF
follow
놀랍
##되었던
지적하며
한국소비자
##단계로
financial
외국의
##㎡로
존속
안중
하나로텔레콤
##동반
##웠고
##해수욕장
##항공사
상점
5급
종합부동산
인권을
친구를
외무장관
호흡을
##주의자
감소를
디자인에
##레스트
김진표
필두로
차단하기
##해양수산
##기념관
##지주는
자연을
##잡을
지금부터
1984년
제외된다
##플렉
감사하다
입항
시아
스무
최대주주인
Elect
한국여성
건강이
버지니아
##만들기
지각
GTX
##금융지주
광고는
한국경제TV와
##문고
보십니까
임산부
모기
요구되는
공정성
감소가
하이트진
어깨를
9000
멈추지
##인적
문화유산
기자들이
그거
잃게
도쿄에서
심화되고
data
김정은이
##석과
유실
growth
##효가
따뜻하게
평가와
타이완
콜레스테롤
거래는
국민안전
배당을
main
##플래닛
대손
병무
##공시를
애로사항을
유난
구하는
예상된다고
신문에
페어
노사는
대금을
##도로를
주도할
보직
감소했고
##날인
KRX
##블릭
설립하고
##뮤직
수위
의원들을
원도
아다
확대하기
형을
역동적인
매체는
담당자
##테크노파크
눈높이에
금액의
집결
수배
의미는
나비
KB국민은행
##대상자
지소
나와야
##나지
만드는데
##용은
##가량의
##mitt
계열사의
쉬워
##fore
고난
##지구의
강남역
강영
Sm
성장동력
피어
##강에
##맛을
자원봉사자
##억제
마틴
관련해서도
지었다
##시위를
FBI
삼일
우월
지시에
낮을
코코
할아버지
취하지
LG그룹
연준의
넘으면
제과
나갔다
시상식은
조건에
##D는
없애는
구자
판단한다
##eep
##지원사업
##DMB
수립하고
투입되는
완료된
가족에게
계절적
블로
##통에
##거진
##이번
##설치
산다
THAAD
가입하는
##app
##단다
청와대로
초기부터
마음은
관람객들이
##자들로부터
주가도
##파이낸스
감사드린다
국과
국회의장이
meeting
##어머니
걱정하는
경량
유연한
발현
사살
어린이가
##어촌
##시대에
##처에서
최소화할
##체류
미군의
할리우드
중단한
May
공고히
막내
수퍼
분석과
일본으로
없어도
우호적인
##감의
전세계적으로
주식시장의
무산됐다
##출연
2급
단말기를
면적이
##제인
5000만
부채를
송정
위축된
성격의
수익형
1983년
head
더해져
왔는데
여대
예쁘
##도우
피트니스
녹화
풀고
##필립스
##입국
may
장착한
라오스
##본은
폭파
밑에
요시
목격자
1월에
박사가
휴먼
프란치스코
B씨가
혐의는
진성
공감대가
##러가
과정과
사회는
##서양
높이의
면모를
열대야
일으켰다
흐리고
##방어체계
아시안게임
공소시
재판장
MV
##단체는
신뢰할
니혼게이자이
##권역
##격인
언제까지
김씨를
기대감으로
인상으로
생산량이
공평
일제강점
중추
관련자
노출된
최씨
막걸리
자리로
만들어낸
소비재
##킨다
최근엔
이전과
초저
##관찰
유신
##경제협력
유동성이
수변
테니스
주식의
일으켰
협회는
판시했다
##르의
크라이슬러
대한상공회의소
지난번
볼보
배터리를
못하면서
서영
##되므로
ERP
기회에
전문직
전문점
##ection
집중돼
##ecut
귀여운
##무형
핵심적인
꽃이
임성
라임
후면
이슈에
행사와
분양이
polic
상황이어서
기업들
##클린
개정에
이행하지
사법연수원
주기적으로
격차
마사지
설명한
##경기장에서
대표이사를
교사의
지정돼
발견됐습니다
성공했다고
지역발전
과제가
메트로
세상에서
영국과
행동으로
남성을
정권은
##권한
정진석
##파괴
교두
타다
##4회
이룩
금융위원회는
바다로
돌아섰
개혁에
계양
도의원
삼는
북동
##여만
##ines
6개의
밝혀진
자란
##erson
북한군
한진그룹
유지한
##50원에
연구위원
중단됐다
재료로
##어업
##텍이
##지구로
야스쿠니
##재단의
확장을
원내대변인은
3박
##만도
추정되고
##위원장인
##연속
현대화
##협을
출석한
롯데홈쇼핑
소나기가
법인을
##현상
등극
##이웃
##종합지수는
스프레
del
범여
##액도
##ajor
전달보다
갈등과
설립했다
평생교육
관세청
##성과를
제국
##가이드
성완종
항공우주
꼬리
##께서는
운운
올라서
짐을
제출해야
안이
들어있는
발암
노동부는
의거
132
탑재했다
보호무역
전염병
체크카드
게이츠
시민들과
System
세관
##쿠버
필요하고
기획조정
신상품
##달러까지
##물이다
공공기관이
자리에는
내려앉
##객을
김춘
주식은
영국에서
추진하기
변해
전통적
visit
전해드
쟁점이
계획으로
자부심을
자백
무관하게
##들지
##갈이
좋아요
##중재
가구는
6∼
##카의
원희룡
매각이
티몬
정리하고
팔린
망설
##총연맹
최고치
##나리
냉방
방식과
##아일랜드
##res
공무원을
전시된다
##6000억원
의존도가
팔자
경찰청은
권혁
##사절
##모니터
한샘
형이
비중도
자금의
외주
남아있다
세대를
fn
자세가
여객기
##즈와
북한산
틀어
자동차가
손상을
##글이
정례브리핑에서
상장된
시식
불발
##카운
탄산
##만원까지
산업은
손질
생산라인
##농도
배심
행보
앞장서고
불식
논리를
시술을
대기업에
찾아내
##채가
제품도
방송의
앞뒤
프랑크푸르트
##구요
이동하고
URL를
##대상으로
빅3
새삼
선수의
가미
Ed
##요청
##속도가
박명
##근무를
본청
국익
시선이
늘었지만
쓰일
당사의
##배당을
이종걸
##미경
남아프리카
발자
##공구
머릿
##TV에서
넣는
여론조사를
포기하는
##400
1만6
최소화하고
그간의
의회에
줄면서
2건
##평의
볼때
##나물
영화가
상황도
사실이지만
영업이익률
사소한
이날까지
조성사업
제4차
11명
##하니까
##9억
##TEU
BNK
광주의
입주가
운전을
150만
시리즈를
품목은
##비엔날레
교차로
사법처리
생략
재판부가
##교육이
##예산을
100원
##수립
다문화가정
향상된
현수막
급히
##구조조정
제명
##교동
디폴
규제로
Serv
의욕
지속적
##십리
온라인몰
프로세서
1만8
##꽃이
개체
확인돼
##분해
해준
내연
의전
##설과
주성
ML
##받아야
경북대
준다는
##스위
접수하면
벗고
##촌동
일부개정
##억7천
노화
##무대에서
총회에서
##GS
의혹은
##밖의
히어로
질문이
##티가
회원을
아가
주택의
5시까지
있더라도
##영양
이메일을
의미의
차는
차량과
##투자의
아쿠아
입주한
지분율은
선적
와인을
살아온
25만
부담도
착수할
디스
지진으로
20세기
##클리닉
1대1
경각
설을
사항에
받아들이고
155
고수하고
피랍
감소에
##토의
##협회의
number
1에
팀은
##자산을
조항이
쿠르드
태풍의
##발한
토요타
반갑
##문화가
편한
##이전
여성에게
##대형
##안타
##너지는
서버를
인수하는
문화콘텐츠
##SW
상사
아버지를
직면한
준법
모르지만
인기다
업주
필요하다면
제품들을
자동차와
##사회적
마땅한
##대금을
완화하는
미래지향
입장에선
5곳
아사
조준
어획
염색
걸러
요미
1800
ins
구속됐다
주말을
감안한
##슨의
BT
나가지
조지아
정도만
전략공천
회복했다
예정됐던
끌어들이
광진
계속해
##억8천
진입할
조롱
뮤직비디오
경축
정할
지역이다
도정
환경보호
##메모리
돌리는
##통화를
반등에
2000억원
##공원이
시리즈는
##박을
과자
##화점이
##창의
자긍
기반시설
농작물
실물경제
##iation
오전부터
##밥을
##20분
집중해
시외
빅토
##더군요
갈등은
김신
식료품
용적률
유입된
예산의
기여했다
융복합
증진을
##에버
화랑
민주당을
브랜드는
마당
재래시장
경전철
여성들은
부문이
QR
저런
Ag
##가치를
송출
est
##000만원의
식용
##대까지
지속해서
스와
선수들의
자격증을
제21
청와대를
믿는
개입한
당협
soccer
마무리했다
##해야할
합치면
##7000억원
부회장을
##메이트
양지
노력도
중소기업중앙
월마트
처음에
승격
##4000억원
합의했다고
##질환을
##대인
때려
먹지
##희의
익스
##인원은
##억여원을
부문에서는
##원으로서
8배
주었다
컨소시엄을
상태인
##농민
추월
추산된다
exper
상한제
쓰여
1600
##안정성
##cess
##보험에
거주하고
함부로
7시간
부드럽게
브라우
##높은
마을에
가든
##마을을
하늘이
##환자가
갤러리아
개별적으로
##일지
사이언스
방송통신위원회
바이오시
재앙
##규어
행정자치부
영예를
##마을에서
청소년을
읍면
##기술은
수상했다고
이근
일방적
가령
##225
세븐일레븐
##개척
평소에
접수한
stud
대장암
취향에
일문일
가이나
지분은
회사원
교육과정을
##공원에
방조
끔찍한
않던
단기적인
광범위하게
에디
종합해
고의로
##부두
##러를
##진해
민주통합
경쟁률이
TV는
문책
28개
총장을
분쟁을
제작을
호재가
수석이
##민정
애도
가공식품
농협중앙회
남녀노
협업으로
활용을
지점에
##재단에
똑같
이전에는
발표된다
재난안전
F1
프리미어
이방
##신약
제재가
경기둔
법안에
천문학
국제학술
자기소개
party
손자
리모
art
##주의와
공명
이들도
##시키면서
공급계약을
쓰레기를
##co
이벤트로
아니더라도
프린터
입장과
##표는
power
나타났으며
후기
원하지
지사를
피를
50억
창업자
추가된
병원의
##지방검찰
##조회
준비된
문화재청
패키지를
2002
무관한
코미디
폭은
##전투
##크래프트
##절기
저희는
##클로
결의안을
아이템으로
So
당하는
감소와
##집은
많아서
선명한
고위공직자
표현할
134
박동
사유를
불응
해당된다
모으는
구성할
소강
차질없이
##mg
##시키려는
기업들도
##드래곤
이문
네티즌은
##EV
박혜
부인이
둘레
도시개발
기록하면서
같다는
건수
##억6천
제자리
지분율
내렸다고
##지표를
예방하는
금융거래
##ross
서술
전병헌
##전달
도시가
기압
뽑은
자수
어버이
받거나
테러를
경기도와
기억을
##게임을
급여를
청구한
##어드
가지가
##항공우주
##뮤지컬
설명이
##쓰기
올해에도
11월에
dif
영어를
채용할
##생명이
유도하기
용지
태도가
성폭행한
통과시켰다
##운동장
부가세
차별화를
콜라보
##힘을
송년
예고한
18개월
같아서
##테크놀로지
망명
인정받
풍선
작품의
부연했다
##연봉
모씨
싱크크
포리즘
##러그
##수요를
안된다는
달성하기
영국은
무선통신
비아
회의에는
목사가
지스타
기간의
##쳤다고
작곡가
상자
정도면
Air
1000명
SF
적정한
##공장의
스텔
##오픈
꼽히고
유무선
상황이었다
차남
쓰면
고성군
노력은
##학위
제대
브렌트
심폐소생
다변화
초과한
강기
파장을
진입한
2월에
신원을
아한
##사옥
센텀
대법원의
잇몸
공개된다
##상스
186
검사의
입구에
올린다
3세
우리측
##경기도
##인플루엔자
올해부터는
##강연
다듬
##중이라고
근로소득
리얼미터
##인공
하되
지폐
효과에
##농업기술
cond
폭우가
Bank
없음
SK하이닉
##들에겐
누르고
띠고
다단계
##보호구역
오존
말씀이
눈치를
특정한
낮에는
##철학
간식
보호에
사망하고
##코리아의
##평이
##표로
구간이
주도했다
디자인은
ROE
기소했다
신변
미군이
##최초
했다가
선수를
일대의
양일간
공연장
##지성
신설하고
현대기아
범죄가
하태
사장에
왔고
##투쟁을
보이기도
역학조사
매트리스
##길에서
입술
##탄생
마당에
앱에서
시험에
Inc
##었죠
##겠는가
금메달을
아저
블랙박스
바위
장기적으로는
gr
##축제를
퇴진을
당과
##만하게
간격으로
##콤은
##향악
반영하지
##정상화
여의치
고이즈
시력
하반기에도
##개인
드라이버
구애
AB
평면
##관측
le
신입사
##가을
##져서
보여줬
성경
첫해
My
공무원과
위원장으로
요소로
수요자들의
지켜볼
있겠느냐
한국에서는
증원
관계기관
현명한
440
북측의
주식회사
##재활
운전자의
싸우
##거티브
59㎡
##억4천
마련이다
##지원이
##let
새해를
다리가
실업률이
앞세운
##raph
##보게
하루가
음모
초음파
FM
인계
LTV
소득주도
ASE
문이
노선에
##엔을
일감
사회봉사
##EE
경영상
국회와
거래에
##진으로
##이행
##벌레
전망과
##비대
모르게
노력한
##재배
홍보에
세일즈
더운
올레드
14만
공무원은
##었는지
디렉
세력의
망가
홍남기
성형외과
몸무
동작을
##하기까지
기소돼
퍼즐
덩달아
##락에
천명
원숭
던전
이름과
공조를
철학을
다니다
극도로
광역시
임시회
##됐었다
##1과
관리해
건강하고
##하시기
거침
##됐는지
어느정도
지켜보는
막강한
영업이익률은
거짓말을
법사위
발이
관문
일입니다
전보
대표인
수성구
외부의
##뿐이다
PV
##신용평가
##ilitary
겁니까
##남북
애경
저비용
올해까지
##산업협회
조이
도시형
시키는
집중하는
코스닥은
경총
##농장
##조선해양
##위탁
##범이
##세훈
##지원에
예방하고
이내의
치열하게
의뢰한
4차례
##유리
나타낸다
City
효자
##영재
평양에서
강세로
##승용
안과
한국인터넷
##창한
영유권
미래형
6층
예정이었으나
취업준비
확인하실
요트
활동도
모델이다
노선은
##년에
##브는
미시
현저
성과로
우세하다
##어리
검사와
현재와
언급은
##마스터
신고리
실외
자행
##증서
돌풍
숙련
생생하게
##기준이
교육문화
##사업단
출항
책상
이용하여
화소
adv
만나게
서장
없거나
60만
내일부터
합의로
살리고
여기저기
##처와
##als
액화
트리플
드레
기업가치
최고인민
수출하는
어린이들의
관리는
아크
진화에
수주를
내세웠다
공급에
병원이
##방으로
배포한
보고한
해소에
효과적이다
기울이
수시모집
지원하며
건가요
포기할
1981년
머리에
생각한
강제징용
##건과
산행
전업
특검팀은
쏟고
기술주
##ty
리우
전남대
인수할
명실상부한
한민
개인정보보호
부르고
##보증을
상원의원
취하
하한가
미네랄
발표됐다
바우
찰스
##철강
##공단이
##㎞로
뉴욕상업
됐는데
불편함을
##절로
긴급재난
모습에
마리아
만나서
배에
제동을
##운수
##이슈
경질
찾아보기
불안해
##길로
마크롱
축적된
사칭
##학교에
40개
사과와
친인척
유라
한국문화
귀국한
모양을
##싸움을
이날은
대법원장
예보했다
유난히
분위기에
##ole
육성에
##본부에서
수술이
안정에
활기
기프트
지속되면서
최대치를
출사
##∼200
분단
##왔으며
주연
중단했다
비금속
기공
예상했던
노인복지
맞추는
삼성전자에
##주기를
운항을
교도소
인력과
가짜뉴스
##마르
끼친
네거티브
입력하면
김진태
##대상에
##만원씩
코스닥시장에서
수니
##하기만
##갈등
##itical
후반기
종목으로
색상
##헬스케어
타으로
##검사는
한창이다
TPP
Acc
네트워킹
교육청은
할인해
도입으로
관련법
확인했다고
관계의
복리
시절부터
##지청
말리
지리적
##하곤
조상
제보가
선언하고
지배적이다
검찰에서
안팎에서
승객이
진안
200여명이
결함
살아야
기관장
권력의
해태
##평에
간병
##항공은
##소영
요동
##사항은
시각으로
한번도
보스
요청해
##의회가
스터
##공격
KAI
##ret
연내에
프로그래
무역분쟁
책임감을
근본적
##사격
강좌를
##젠테이션
시리즈의
##목표를
사용자는
선진국의
시그니처
엄격하게
기정
##만장
쏘아
입학사정
청송
개념이
키우기
질의응답
체내
김영철
경영지원
많았습니다
##르바
##소리가
투표율이
광안
##넷은
실수를
제20
고분
펀드매니저
1만여
자유로
한나라당과
다음날인
비밀번호
성향을
##바게
정책금융
맞붙
##마스크
##오버
##rib
자산이
안았다
기간동안
게임이다
소액주주
다각적인
존재를
##50억원
미술품
##축제는
내란
재무제표
그랑
파나
주영
2003년부터
포지션
맞출
광주에서
논쟁이
주택은
불사
흥미를
읽기
권리가
바이오시밀러
지뢰
의지와
단지를
WP
올림
pop
민주주의의
스타일은
카이스트
보았다
##사업장
##IV
더위를
통역
시간으로
기생충
가르치는
##실장을
달부터
강남의
Car
캐스터
연령대
10만명
홈페이지와
##실적은
##현의
위상
사연
두산인프라
수행한
증빙
안종
경찰을
추진했다
리터
발주한
기관투자
여성가족부
일단락
치르
1천만
힘들다는
공판에서
오픈한
거듭하고
##움은
야당과
선임됐다
인정을
##iversity
다져
기획했다
그리스의
리딩
이월
##인베스트먼트
##리사
소개해
FTA를
불가피하게
##ration
아이폰5
진정성
단계적
컨퍼런
직전에
##침에
치료하는
소매판매
이탈리아의
한국수력
##파울
친구들이
숨겨진
운영하면서
대사가
1조원을
##다보니
내며
정류
아침부터
##선도로
자활
김정은의
기금운용
선회
먹어
##화도
획득했다
최인
강화로
##위원장에
##출금
독자적으로
##쳤던
대비하기
일가
은행권의
세브란스
속이
선동
##차원의
명성
영향에
빠지지
최민
##왔는데
올리면
임실
개발했다고
주장과
머리가
가깝게
다케
A씨에게
##니즘
김해시
계열의
구민
지지층
오이
##공간이
안녕하십니까
##전스
내세우고
얘기하는
날씨에
실었다
월별
##ural
1순
반발해
사랑에
##원지
군용
말만
##nam
발생시
거듭날
공동선언
적성
##50만
##ands
다니며
장르의
부탁드린다
불렀다
##협의회가
##EF
방인권
미래에셋증권
공정거래위원회
##장과의
성능과
##구도
은닉
일본어
##거래소에서
인터넷에서
지날
실손
칼을
##LO
상품인
자리잡은
북경
유통기한
##테나
토론이
TFT
차관보는
막아야
##교육에
꿈의
봉사단
사제
기준으로는
miss
장모
부실채권
일문일답
존재하지
##현장에
이체
잠재력을
도시가스
다카
##정상회의
크라우드
마른
부흥
##링을
전월세
##샤오
스타일리
베이커
마련될
삼겹살
##우려
주재한
탈취
##흐름을
인프라가
방중
플랫폼으로
신청해
질이
좋아질
주도해
내림세를
요인이다
sum
때다
고른
##판의
세계대전
쿠페
원치
차례의
now
힘들게
공정하고
겹치면서
이케
##더러
##화면
##에르
경기도의
박영태
체불
주목받는
추락한
##카오는
검토해야
원활히
독일과
횡령한
대상의
공개될
학급
fe
갈아치
##그룹에
상세한
조성과
청구를
어린이들에게
할인점
홍보하고
색소
팔렸다
##레벨
급진
충격에
EX
특이한
##기후
간염
정홍
just
배경이
되었습니다
벌이다
##범을
심각성을
후속조치
모습과
외치며
면이
쓰인다
후보도
다방
우상호
비서관은
7명의
##군청
참패
##개발과
Or
왔다는
객관적
전자정부
Dr
##춘천
애매
개최될
일용
SMS
인가를
높지만
주가조작
부적격
자국의
문제라고
한국인이
옆에서
발길을
##차익을
사저
방미
이르게
포함하고
##국수
요구한다
투표율
귀금속
장마전
당첨번호
하방
전국동시지방선거
핵무기를
성지
##이야기
14년
삼성카드
꼽은
낮다는
평형
편중
##00원이다
##래를
투입돼
위약
누르면
##ussia
명백히
이야기도
##가치가
늘리기로
요금이
저서
정조
##주유
열렸습니다
##전단
##차단
소수의
##입장을
마진
##undai
시스템이다
참전용
담당자는
##청산
못지
##aw
##8000억원
트렌드에
급하게
포인트가
사회관계망
##지사의
단체로
악화되고
마일리지
강도를
정운찬
##권리
끼칠
속한다
벽에
##타기
종목과
로밍
대학수학능력시험
이리
언니
세계무역기구
임단
세워진
셔틀
직급
심재철
뉴스1▶
웹젠
##용석
유익한
하락은
시작하고
들이고
교착
명인
변질
##케이드
앉은
##LA
##사이드
##드폰
장영
##무효
렌탈
실수로
멸종위기
win
CCTV를
확정한
##ys
##정책은
미비
##탄도미사일
한마당
대학생들이
유능
OK
공개돼
도시에
완료한
시민에게
안될
스포티
주인공이
공대
대사를
재조정
##였기
집적
분들의
하라고
관객을
처음입니다
품질이
참여하게
죄송하다
##도시철도
차지하며
부상하고
심각하다
경색
남극
시설은
136
AC
안치
겨울을
물러난
반등을
장소는
주택가격
뭐냐
아이디어가
회원으로
현대차와
##익은
conf
만취
땅콩
보여주기
전체회의
소송이
기술인
가방을
출발하는
5개의
모노
##값에
안정과
마을의
조용한
봉투
군데
구성이
##국방
성관계
2세대
임명됐다
머무는
습관을
중환자
##∼19
##kW
##판과
LG필립스
과격
우원식
대비하고
##오기
수영장
##토를
입지가
하루만에
##코프
당사자인
CJ헬로
1만2천
부사장을
과대
애정
물의
결합된
##other
전달해
나타낼
농심
팀의
석유제품
지검
##업계에서
펴낸
않았는데
##디가
포함되어
##양식
군부대
의과대학
선거의
무작정
비용과
봉하
증언을
부대변인은
자리한
스위트
187
##ird
##사무소에서
##섭니다
##홀딩스는
##대부
경직
출시하는
94년
입수한
유세를
대한상공회의
말에는
##림의
생수
보세요
FTSE
경향을
##소닉
##가던
HA
어려웠던
##다시피
185
부처가
관례
비틀
##00여명이
##김없이
경제성장률이
초상
같지만
##소프트는
보호할
##세에서
##세까지
지나면서
##명인
중심을
예술의전당
전현
##치사
드리는
삼았다
##보복
##hib
늘어나게
광고가
##아들
##학교육
확충을
부당이
친근
점검하는
차관급
비수기
논란으로
배급
두번째로
##대화를
정우택
집회가
적립식
향후에도
순창
월성
디아
잔액은
유죄로
여유를
서울시교육청
지주사
##orpor
before
차명계좌
경합
한컴
도자기
김근태
적용한다
과정으로
성금을
공급해
일겠다
소속된
역사는
##령에
용접
부담하는
ABS
확실시
데에는
불완전
##수칙
8대
연준이
31일부터
##TV는
김순
평을
군청
##벽을
전환에
##전산
떠났
몸과
도움으로
재정을
##유적
청년들의
말라는
전자책
넓게
발상
##모터스
지장을
##네이션
합참의
미래부
이란이
소통이
##어에
아닌데
major
검출된
em
예전에
LG이노
실적과
바란
매물을
찍는
##lier
대표이사로
기대와
긴장감이
##었는데요
사회보장
교수님
안내를
초고층
실시하기로
UI
신주인수권
하락폭이
기준치
관람객이
##현이
우리나라와
지대
자리는
화상을
발생을
현상으로
부설
노사관계
175
누구에게
내어
##기대
##사무소를
##ㆍ4분기
억압
탈루
사회간접
주택이
조그
##송금
##창작
##교육은
착수한
거부할
격인
물과
상파울
##시간의
해외투자
뒤에서
배로
노량
밝게
다양화
아파트와
##메트로
달라지는
비판에
본사가
것만으로도
불행
손바닥
보행자
##나가야
민감하게
고루
144
##가능한
own
30도
##라미
남과
##해튼
신흥시장
편의시설
##피가
전통문화
##시멘트
민주화운동
어떻습니까
##비만
관람할
##인가를
작품에
공급한
3분기에
이분
1900
##하여야
그린벨트
1m
구단
분명하게
수도권을
대단지
박문
지방에서
어린이와
열리며
오디
전환한
변화로
EPS
##연설에서
##주택을
17년
2명과
인턴십
노동계
##돼서
인상과
치르는
미친다
발표해
연구결과가
소송에
##단체에
##번의
판매량을
비즈니
만점
##der
##서비스의
쏠림
##nes
조사대상
det
서경
성악
전개할
나쁘지
제한적일
정치인이
부당이득
Cho
##타리
##대학은
##9월
##증의
품목에
업종을
목표주가는
협정을
외장
가이
##Mbps
##마와
PC를
##화합
펼쳐질
카이로
사람이다
##비중은
##뱅크는
현관
해수부
Gr
빠뜨
고이즈미
##참사
이적
경실련
엇갈린
당신은
증권가
인천의
like
낙선
소속사
BBB
가로수
전개해
해석했다
가성
이스탄
##움의
설정하고
강제추
번째다
정말로
후진타오
품격
##딩을
자살을
조선의
구간의
행안부
세계화
##톤을
놀랐다
총리실
사업자의
기획예산
추진이
##arter
3호선
##해선
국제적으로
##자율
명소
그제
비슷하거나
꿈이
##테리아
2000여
빼놓을
값을
건설하는
돌리고
가능성과
##환급
냈습니다
성관계를
3조원
게재됐다
##출혈
다문화가족
##각각
목적에
##희는
의견으로
##상해
키웠다
열기
##시면
대상자를
##백신
##기자회견
Re
##오피아
옵티머스
3000만
자유와
식민지
증자
고객에
풍력발전
변모
트레일
##카가
급상승
현대증권은
담당한다
여권의
떨어졌고
그리는
합계
##폐쇄
시각장애
1만7
주자
5인
후원금을
일대는
문화에
##이식
구상이다
높았던
농사를
적용이
##브를
##atic
뭐라고
##우성
노을
항일
없으니
토요
##더는
시장조
차익을
항산화
처벌할
24개월
Vo
민주당에
기관으로
때에도
기상청에
음악회
돌풍을
혼자서
##조사에서
그러니
여중
##즈에
호랑이
해결되지
난이
신체적
중동호흡기증후군
맞이한
##ah
소품
힘쓰고
저기
##리라는
국세청이
제출된
정보에
수요도
투입된다
MA
소비자는
투표가
서청원
피해자는
##교정
프로젝트가
460
소양
도발에
본사와
지성
임야
설명해
사용에
거래되는
무역수지
설치가
편성해
emp
##펀드가
##시까지
변하는
개혁과
기름을
##기본법
초코
##소프트웨어
일반에
530
6명을
전원에게
##요인이
신용불량
##ppm
바른정
취했다
정호
##㎞에
##강남
대통합민주
##방송이
##경영자
##국장을
##대국
비용도
최저가
효력을
폐지하고
가능합니다
분리해
공부하는
GT
크기로
정장
밝혔고
테헤
##너를
오피
##선정
킨텍
100만원을
각지에서
##추진위원회
당선됐다
등장하고
기능에
내에서는
대림산업
판다
자연재해
##체계가
지식과
병을
부처의
활용이
##쇄신
##31일까지
턴어
국내선
왔으나
며느
일원에
##받았습니다
활동의
무상급
우수사례
정명
Sept
배드
노점
##집회
달라진다
김동철
##편한세상
미래전략
이스트
의외로
##구동
부문별
정연
비난이
교체를
커리
3월말
##무니
이동식
부천시
직업을
해리
##선거를
떨어지면
상황에서는
건설업체
본점에서
맞는다
선고를
또래
##쳤고
Cup
셈입니다
제공하게
서울아산
동경
로즈
##명이며
새벽부터
지식산업
거실
호국
이슬람국가
July
살충
선박의
불공정거래
##경기를
상처가
봄을
주택공급
품질과
차체
피해자들이
소스
네티즌들의
부과된다
##확대를
##담이
제품들이
위협하고
8백
10곳
여름방학
사회자
김동연
친구와
고문은
워크을
확대되면서
##격차
자제하고
휴전
의사와
추진하겠다고
홍석
데스크톱
차입금
개헌을
##구이
손이
이석기
당무
team
##설비를
시행규칙
대역
##제에서
##세대를
당에서
통째로
식재료
남자는
##ergy
MWC
생후
작지만
##도시를
재탄생
제출을
절실한
비전과
제주를
부산은
##만큼이나
Med
반대한다
대설
##큐리티
16만
##기준으로
agre
##벌을
태양전지
증후
인격
선뜻
##무라
연구팀이
살펴보
아시
##방울이
##전인
파월
스리랑
가입하면
##범준
시위대
쳐다
##상담을
간단히
재협상
대표들이
대책으로
불리며
##수익률이
지극
##미사
##하자마자
부여하고
##인증을
핵심이다
mod
분들도
4분
##갈비
단합
지구의
##덕수
무책임한
국토해양부는
지난해의
끊어
예상되며
CDMA
반응이다
급한
Engl
부두
##iving
한국판
id
백종
화석
갖기
피살
앞바다에서
예고하고
넓히고
급감했다
##GF
##800
질서를
전시관
사실관계를
내면서
경기와
서울특별시
부쳐
패스
인터넷뱅킹
덕수
들면서
의료정밀
조성되는
어느새
가시적인
해결이
있기에
##남녀
주제의
오가며
##자전거
한국거래소는
불성
웃고
##송이
확정되지
후원을
흥덕
합천
액수
##선거구
모멘텀은
소유의
##ects
##증시가
##기일
달라졌다
신뢰성
##테크윈
임영
감액
##분한
미쓰비시
떨어졌습니다
있어서도
삼성전자를
##대로라면
005930
##시키는데
남자의
##보험의
처리한
연료전지
위태
##납부
박종일
처형
##현은
운영의
139
##ched
officials
##식품을
요금은
3년을
개연
주주총회를
파업이
##관리자
수에
##타가
##구조가
건설과
##6회
TV의
측면도
심정
한편으로는
##파스
##지구에서
녹차
소원
시달리는
공모주
대단한
시인의
##봉투
##마니아
##주시죠
뿌리를
선관위는
신중히
##수주
결정해야
##씨티
##수습
##적용
개발의
도용
삼성디스플레이
진출하는
리빙
임금이
formula
##MEX
물색
##디의
##요법
합당
순위가
30∼
독보적인
전망했습니다
공개되지
감산
##OA
삼은
천연기념
##겁고
도축
주저앉
야마
##하가
##활동과
##클러스터
개정으로
이모씨
industry
명심
만난다
출자전환
책임질
카테고
가능해진다
갑작스러운
연골
나왔다고
수혜가
스모
장애인의
소화기
못지않게
박연
어렵기
##eh
##자녀
물꼬
촉발된
토대를
건다
전문가들
##부문에서
업무와
빛이
원인과
이뤄지면
Europ
클라우
1960년대
맨해튼
##천연
상응하는
일가의
##경쟁을
받아서
held
접근성
자연스레
병력을
direct
밤에는
로맨틱
전선
사용자들이
감정평가
했는데요
Jan
sales
137
폐사
석면
조양호
남북간
##증시는
##자산운용은
브랜드와
ING
항체
##8월
##만명으로
오던
업무의
젊은이들이
우파
##라를
업적을
갖가지
탄도
사라지는
원하고
계약에
법리
##말리아
##부담금
입성
##방지법
사이를
##시어
##uthor
##예정인
몰라도
확인됐다고
원달러
편도
푸는
##모델로
독일에서
상황이라
계좌로
연수를
스팀
수치는
상암
걸그룹
##이고요
##질서를
지금이라도
##입학
##사유
골드만삭스
페이퍼
타진
##50분
줄어들어
##머리를
남편은
처음엔
재정위기
1978년
이직
따를
보건당국은
강세다
다가올
육성하기
음식이
일당
넘겨졌다
쏟아냈다
잠겨
예비타당성
K5
독일은
상승하면서
정자
여느
대한적십자사
다르다는
계정을
열었습니다
##은혜
뒤흔
사진으로
외국에서
백신을
##ph
만들어내는
진입이
과언이
##시장도
확정되면
최씨가
what
있으니까
##브리지
신민
모리
정치자금법
##진압
넘고
불확실한
산업과
##조류
공정을
##불황
부회장과
법률에
엄마의
김해공항
시행해
##소송에서
수상작
##근을
높여야
본격화될
들의
보이자
적자로
##els
##담당관
CFO
##ient
농산물을
장치가
영원한
경매에
임직원들의
유니폼
요청하고
상대적
삼성서울병원
무산된
이스라엘의
자회사로
온스
협력하기로
의료관광
조짐이
겸손
에티오피아
##서에는
##입법
이동훈
Germany
##들에서
상임이사
주안
의심을
##혜원
분석했습니다
취급하는
발렌
공동대표는
##프터
출구전략
증거로
바이올린
##900
지난달부터
##불리
침체가
향응
SSD
부끄럽
주식시장에서
인사의
해외사업
구조다
통화가
온통
배출가스
##군데
특단의
주택금융
state
서머
찾아오는
분석하여
##소득을
##HS
##채권을
웃었다
한국개발연구원
방문한다
##50만원
죄를
탑승객
##기원
붙잡혔습니다
두터
후보들은
##화되는
##합격
안병
들며
출범을
공항에
##보좌관
지정하고
제시하지
대타
길거리
생산량을
사회부
점수로
trad
코리아는
농가에
연말연
후인
전진환
지분율이
##이체
납득할
PA
조절할
서비스하는
정기적인
2년이
아이티
내놓는다
특구
16년
이차
예정이었다
달렸다
##GI
##평가에서
산모
성신
2016년부터
스코틀랜드
성황리에
##버려
가능했다
전자담배
힘들고
향했다
비차익
##여만에
장맛
공급된다
떠안
몸으로
광주광역시
묻어
지출을
문자메시지를
매입을
연기금
가출
감당할
대구와
##태영
정원을
루이스
GS홈쇼핑
의식이
##이라든지
1학기
##형인
의자
주주총회
1가구
옮길
##건수가
소개할
이미지와
재확인했다
새겨진
홍정
대표단은
수요자
게임과
모발
의장과
행동은
##대상에서
2014년까지
##공학부
지역아동
##ream
##사회에서
후보들의
##무는
라이프스타일
답이
##고등
경영의
당은
드러나는
바다에서
직권상
개선으로
봉합
올리며
갖추지
이어졌습니다
##유업
위를
현대카드
캐논
##운을
수행한다
비난하는
궁금한
조례를
변경했다
어색
시도할
##거주
통과했다
원한다
자유한국당이
##지원금을
AI가
오늘보다
오기
전략적으로
규제는
이별
##M은
조성하기
연관된
남편을
잔액
당당히
폭격
부여했다
##방법은
매수가
##살의
여당인
##영기자
영역에
정부부처
NS
필요에
장재
소극적인
##억9천
걸맞은
##성에서
아들은
포스코건설
열차가
##하게도
신고가를
삼계
예상한
SK증권
처리해야
최소화하는
기각했다
테헤란
##판결
자율주행차
감정이
##훈장
1973년
military
제거하고
배경에는
독립을
내일까지
부가가치세
최명
##엑스
ARS
방탄소년
대륙간
받아들여지지
도착할
숙소
##안도
##진다는
감추
##르자
138
이스탄불
기업들에
사계절
148
##종이다
초소형
중금속
1층에
설정한
21세
경로당
보러
##브러
연제
한은의
700만
촉매
##유틸리티
신설했다
코레일은
구성에
중앙방역
조직적으로
##록에
##현상을
청년실업
##선생
현실은
##주변
신빙
활용하기
쌓아온
삼을
2위에
##터치
영남권
오션
고령자
합리적으로
5천만
부정부패
활동할
say
목적의
적합하다
##줄기세포
연말에
후문이다
부과할
1차로
처리해
한국방송
이연
March
##약국
성과와
규제완화
알짜
##SEOUL
사업추진
##파업
##당시
파열
금융당국의
based
퍼블리싱
포스코가
맡길
여기까지
제법
토너
콘텐츠로
회원들은
온도가
##시설에서
##스카이
390
5월에는
차용
협동
외신에
내포
ser
확인하지
아니라면
##가지수가
축제로
부드럽고
원리를
가담한
같은데요
발걸음을
예산에
최윤
##됨으로써
Bo
마냥
CV
최전
##버스는
연휴가
경우에만
12조
누구를
세트를
구태
##크풀
라운드
##내년
스커
선택과
알린
마련하겠다
기법을
주며
##사건이
##만수
##여곡
달러화가
투기과열
온라인을
복숭
해역에서
##㎡를
##우산
암세포
다중이용
부정적으로
구출
##패키
요구는
배치된
비효율
선정한다
##세대의
통합의
신용등급이
연출했다
내려졌다
찬양
##헬기
지자체에
##키고
최대주주가
들어가고
변액
되게
타임스
공정위가
출시됐다
##서나
아내의
아내를
전통적으로
전날인
뱅킹
찍었다
진행했다고
산을
원론
나왔지만
논설
ⓒ200
중요합니다
540
수임
##산업으로
버렸다
화합을
김봉
변론
넘기는
글과
날려
##우량
나트
주요한
최우수상
검토하겠다
고압
병원은
##리서치
1사
##황식
개설한
지양
할머니의
출판사
궁금증을
인종차별
온도를
반복되는
택지개발
##패드
도우미
365
임시정부
미국내
운임
중과
실적도
sub
거행
남조선
##나루
사회간접자본
파문
고수익
시네마
탐험
도메
아웃소싱
제4회
계급
economy
##000만원에
액체
원주민
즐겁다
터무니
지원한다고
##찾기
##분류
왕이
깊어
그렇고
파견해
대한통운
통계에
수주가
체결할
주택에
불렀
##레드
##단체들은
개설해
방향성을
제공한다는
3번째
현대상선
3급
5세
press
낭만
지역민
강민
fac
요금제를
준비돼
공감하고
시사하는
미러
가용
채권단이
##발급
전공의
끌어올릴
경상남도
창사
##법인인
##보험을
##옥션
international
콘셉트로
코인
강조해
##본부의
사법부
진지한
하락하면서
##iday
확인하세요
경고를
크리스토
사회관계망서비스
부분의
주민센터
##타페
##ged
느껴진다
정체성
구내
독도를
삼천
##원들은
유입되는
##tal
sol
황영
상태여서
지출이
##포가
온라인에서
재해석
##내용은
공인중개사
관저
##그는
일류
접근하는
식약처
강화되고
오징어
7시부터
##700
허용하고
서열
사명을
원두
##퍼트
92년
##로이드
##1차
대책마련
은혜
##경화
보이던
##의혹
밀폐
##무대
뮤지션
##보단
밀고
핵을
진출했다
2m
버스가
배치를
빛의
출시에
대법원에서
산란
FPS
##지겠습니다
다쳤다
게임빌
##아시안
회원사
##해제
닌텐
스탠다드
항목에
당첨자는
홍영표
##도스
##분야는
열립니다
오찬을
난치
##반영
방향은
##채는
세부적인
CMA
이사장을
긴급체포
##편은
##행정부
농림축산식품부
실패로
##계약이
보도된
LG화학은
159
대일
북측은
JW
밝고
예약을
재배치
##현황을
공무원들의
3부
강북구
##아라
##인들
품목의
##중부
##수당을
하죠
한국교육
공기청정
생계를
아버지와
삼성전기
필요하면
기업용
소말리아
김현미
주변에는
공격적으로
shar
한국석유
컬러의
협의하고
정품
오인
생활의
청문회에서
##2는
##잠수
##read
발코니
열매
롯데마트는
스토리를
출시가
홍문
글은
발표하며
##질로
주가연계
스테인
우수상
부는
양해각서를
service
##정에서
제17
소방방재
소속의
되었고
학부모들이
시도하는
도에
##쓰레기
생명공학
당당하게
법학전문대학원
맞췄다
시동을
구현할
노선이
음악과
줄여야
압둘
##오름
눈부
지나가는
책이다
인사들을
560
영변
알았
한화그룹
국민에
넥센
회상
프라이빗
하야
엄정한
1300
13명
단체장
개발은
##cl
코리안
##개소
지이
전남지역
한전은
혈당
실현하기
##사관학교
성향이
유통업
노려
##회째를
전면적인
측에서는
팬들의
공정하게
몰릴
##사키
발빠
발언하고
진술이
전날에
증가했지만
지속해
##우와
이어가는
연관이
통안
##본부와
은은
하신
건강식품
3월에는
실직
떨어진다는
지하수
말하기도
##연구원과
절망
해소하는
470
##등록을
대비해야
안보를
수수한
##마니
복당
많았지만
expected
경기침체로
원심
저렇게
유언
##안심
일회용
지가
블레이드
압도적으로
대교
##소니
상당을
실적발표
비누
##해산
확대는
동국
##나드는
절개
Off
크기를
정치권에서
지금까지의
국산화
면적의
여파가
사회복지공동모금
##이하
200명
##대학교에서
##태현
사업자로
연구용
##당선
희소
국민회의
한국기업
비씨
##감면
특산물
유입되면서
영국이
##하였습니다
##냈다고
드러나고
##상품의
##대학에서
뛰어들었다
##실리콘
하락과
한반도를
일었다
##될지
정수기
마쳐
시화
변하지
##약이
저온
끼워
한정된
격차는
6년간
인지도가
##판정을
계획과
사기를
유료방송
부녀
마닐라
지소미아
사재
총자산
지수도
신한카드
##잡기
지연되고
경기의
참석하기
##연구위원은
간암
시작됐습니다
건강검진
뉴욕의
참여와
콘도
30분께
하소연
집행을
배타
##내면
##창수
밝히기도
겪었던
##HP
운동은
도출한
전투를
부득
이동을
기술혁신
입건했다고
만성질환
EN
김진아
131
울려
DR
##일정
PMI
15억
발굴을
곤혹
열광
다시금
드러내는
##정보보호
증시를
페인트
연이은
임대료를
연출할
아쉽다
바이러스에
찍힌
##주소
##디자
확대한
정치는
##종금증권
차상위
서점
언더
압도적
8명의
정치권은
죽음의
##lex
중앙선관
불안정한
유형의
제시됐다
싶다고
원칙이
맡긴
정비사업
1975년
민주적
주택건설
7시30분
개정이
두통
##절벽
수립해
누그러
특징이
부풀려
상승의
평가절
옆으로
제주도에
본보
방법과
교보증권
접수됐다
2018년까지
농가의
LG필립스LCD
장착된
##십니다
총액은
투자자를
행정부는
촛불집회
펜스
우여곡
광물
9억원
##법도
네이트
##물량을
전라북도
의혹으로
역량이
확보하게
매니지먼트
국정원은
개혁이
이홍
##공식이
##외에
##권자
레몬
##슨이
농기계
부경
##1000억원
가입이
폭우로
laun
##인가요
연대를
개입을
짜고
올라간
그녀가
##변조
북방
149
의견에
건물로
##바위
지도부를
올초
전문으로
소식은
신뢰도
대출은
##있었다
투자점수
장관도
해명을
##파이낸셜
##공동취재단
Apr
다지는
외로
##HA
반영되지
패러다임을
자산의
서한을
밑도는
함안
만들어서
들어오고
약관
##품은
비단
유급
어린이들을
위기로
파리바게
뛰고
터라
##00여명의
대응책을
##akao
산후
판명
##빛이
참석차
USA
신성장동력
선고했다고
올해와
남궁
어린이날
Dec
부산은행
대책도
많았으며
책임과
##테랑
##2억원으로
##수준에
경쟁은
박스권
##세프
빅데이터를
##박근혜
상장지수
가격제한폭까지
경영전략
입사한
비핵화와
갑상선
공정거래법
안정세를
갑작스런
등에는
항의하는
환영한다
바라본
입사해
박희태
교란
##CG
써서
요격
NO
특목
##추를
머신
품질관리
헌재는
전문지
괴한
공로
마린
상승세
가금
##방지를
those
그치는
동산
OCI
터진
있으면서
4월에는
서예
복귀를
뉴욕증시는
입구에서
##규정을
##프레스
검토가
구글플레이
공청회를
당시에도
신청자
동종목의
대통령께서
확정했다고
##동의안
금천구
##복귀
연합뉴스와의
것에서
해결의
양승태
대출금리
신문이
services
풍부하고
트랜스
##해달라는
이정희
사들여
사랑이
들어간다고
사측은
희석
재취업
##12월
옷차
접수는
폭발적으로
##작년
오성
정보도
몰락
##전입
한국일보
북적
황당한
의혹의
20도
공급과잉
치르고
광둥
##품의
##성공
근처에서
하는가
term
잃을
산하에
지켰다
빅뱅
제약사
시설의
원상
몸담
고점
##수현
중앙재난안전
절실하다
귀족
##사업자가
##행사도
말씀하셨
미국발
홍찬
225
고위관계자는
고안
단가
작업도
마약류
우아한
도어
이야기하는
분은
이종철
받았으나
아로
현판
계산한
gu
##테라
실기
BS
어필
후순위
이전까지
##애나
##순이익
고승민
비율도
소속으로
##협이
5000여
##퍼를
방문자
prom
조직에
대한민국은
우산
##3억원으로
##엘리
친구들
연구하는
억울한
1㎞
인터넷전화
원칙과
아랫
있나요
뉴스■
쓰러진
고도의
팔리는
성장은
보였다고
건당
##티슈
듀오
때면
##타워에서
한국투자
##버리고
갈등으로
17만
집계됐습니다
##시키기로
자사가
게스트
##이벤트
금융업
우루
팔았다
일기
##iver
세전
판결은
실거래
10명의
GC
##업종이
있음
생활체육
##명이었다
못박
예비창업
거점으로
##경부
때문이
April
강하고
메달
##크와
##산업진흥원
시범운영
받았을
##아니라
김황식
여자친
교육감이
증세가
봄이
아테
공세에
화염
임직원의
보완해
사과했다
제출하고
디지털타임스
어려웠
경기도지사
육성하고
중앙아시아
자리다
##보증금
##온은
순유입
##세액
상에서
분양할
K스포츠
TV조선
개최됐다
##사업자의
##4월
원유철
추진되는
보장하지
경의선
##해안
##디한
풀이됩니다
전남도는
HU
추진한다는
여러분이
##전통
회식
임금피크
##계단
변호사의
고기를
깨하게
##남동
##카카오
오늘과
항균
around
잠금
중소기업중앙회
증시도
유지하며
##광물
##속이
하이마트
기관에서
##계획은
회사다
획정
##번이
300명
Aug
광산구
##운이
발생이
만들지
부모는
센터장
##연금을
노래방
공시지가
재평가
우리당
반영됐다
미래에셋대우
독성
##킬로
발생하면서
뛰는
증권사가
흐려
##움에
돌입한
모시고
유입되고
버금
1주년을
두가지
연고
매입해
공모에
얼룩
하면서도
내집
쇄도
조선족
인상할
##정관용
을지
확보하지
고노
동호회
간단하게
30년간
눈의
##환경과
being
조정에
획득할
대중의
70주년
##외선
보기는
##교에
롯데는
투자공식이
캠페인에
##지원단
주효
사르코
세계유산
차별을
미만이
불공
##라든가
기술이전
##지도록
##uesday
언론에서
30분부터
철광
건에
무력화
변하고
학회
3건
위원으로
위험성을
채운
않아야
예전에는
설날
이루어지는
사당
소용
캐피탈
평가됐다
학년
방에서
온스당
##태그
##5월
##카라
신라면
대비할
그보다
성의
향수
에이치
해외주식
6월에는
넓어
지급하지
##자금의
stat
세웠
열지
##펀드에
지원키로
사용해야
순이익을
SPA
불문
메타
Oct
##abor
전쟁에
욕설을
복역
고고도미사일
720
선택하면
상파울루
자신감
Tuesday
양수
연구소는
##예수
##테크는
##ush
판타지
물어야
단호한
##3월
미생물
가입해
Gen
몸무게
부채비율
현대로
시킨
##조원의
##감축
larg
넣었다
##스케
편을
백색
외압
자료로
왔다고
뽑혔다
이재민
Monday
넘겼
##주택은
걸리지
##구장
여성들을
지게
현실에서
열풍이
폭언
블리자
##돌봄
담당한
예술감독
##정류
4차산업
롯데백화점은
출신이다
점검했다
광주지역
퓨전
발신
아이에게
퍼레이드
묻혀
##TP
방역을
##만화
##정보업체
워싱턴DC
싸우는
지식재산권
단점을
고수를
보험료가
이평
페트
급속한
싼타페
##진환
것인지에
출연하는
트윈
##모습
전전
마을에서
테슬라
대결을
phot
황정
절대적으로
신제품은
4세대
이벤트와
꾸미
영업이익과
##범죄가중처벌법상
##여명을
##led
교육부의
기념식을
예상이
협력과
이주영
앱은
##한강
나자
찍을
대표자
수행하게
비무장지대
요인은
And
맞이하는
사장단
LG카드
##지이
거래된
실효성이
싶을
war
슬로건
덕분이다
공화당의
재구성
##잔치
버리는
유머
제시된
주얼
방글라데시
##어린이집
제작하는
##레인지
NBC
##내를
##제조업
반복적으로
지방재정
##법이다
##미수
Wed
점으로
금융지원
보급형
월등히
##아도
home
##경제를
##port
##rol
공장에
##개최
##업계와
둔화될
##철이
흔적을
경제민주
교통사고를
롯데칠
시한을
Party
수집한
상품도
세인트
미국도
진행중
데일리안
러시아를
good
구조조정에
##순환도로
상경
여기에다
음성으로
애프터
TV에
##10월
풀이했다
훈훈
추락했다
혁신성장
하이라
접목해
##매립
마련했다고
지원자
공연에
회기
민간투자
속을
기리는
##판매를
##par
공정거래위원회는
물로
2013년까지
우방
저점
중상을
홈런
가격인
수익금
입맛에
##탕을
기능으로
서류전형
듭니다
##광고를
가족들을
꼽을
조모
##bn
경영이
B씨의
양정
전략의
늘려야
맞섰다
##수도권
시민은
##공원은
조사에서는
시간외
tal
소재한
도약할
진상을
운영될
보도는
들어가지
App
기대해
엘리자
투자도
의견과
결과도
배재
이사장의
세계은행
4일간
전달한다
네이처
법안의
타인의
##omen
원할
비료
어음
일단은
추진과
기초로
송영길
받아들이는
job
상대방의
민주노총은
법인이
노력의
감각을
접촉자
집은
인사말
이헌
홍보수석
대답했다
100g
황당
오르지
운명을
화훼
##rov
방배
안방
도입과
경영진이
보장하고
##기술로
##아울
fam
관광을
법칙
참여했던
스포츠유틸리티
신소재
법무부가
상황인
라틴
끝낸
업무는
최후의
선출됐다
제동
중위
생각하며
대구지역
매개
판례
귀경
온전히
되는지
억제하는
부채가
백성
재단은
무방
되겠습니다
비슷하게
93년
커진다
강종민
새누리당과
상승세다
장편
지금과
##법원에
4기
없으나
경남지역
##신용보증
수수료가
특검이
##생성
법은
Hyundai
개막식
nation
##서비스에
구축이
##디드
2개를
##역까지
아이와
갖다
수립을
PD수첩
판매했다
동참할
##외곽
행장
자원개발
칼라
특정경제
##연에
전문성과
##글라스
파리에서
##필수
확정하고
##소비세
##물도
##림에
상용화를
발산
##리테
대신증권은
##덴셜
##희가
우리나라도
예측할
##실명
주가상승
##가동
조사중이다
목에
RP
대량으로
원년
관광객의
사이에는
##프리미
패권
공통된
2차전지
노출돼
오창
농사
근속
콘서트를
##충당
좋겠다는
명분으로
개성을
단위의
사건에서
2002년부터
건설이
스마트폰이
NI
같은기간
김태호
농식품부
요미우리
##요건
불기소
##보장형
금융시장이
소통하고
##률과
시교육청
##수아
가리는
청결
고발한
의석을
주문한
거머
##범위를
붙을
초반부터
trade
세워야
체험하고
##측에서
##치아
판단에서다
쏠린다
한국당의
문제삼
##망은
불가피하다는
간직
유성구
나서며
호텔을
##도르
2종을
##준영
연습을
한국금융
시스코
숙성
##석에서
2만5
진정으로
내진
했었다
유권자들의
NASA
At
통과해
프렌
aff
##겠나
cor
주말인
대운하
특허청
국회의원을
일하던
인수했다
인신
넘어갈
대회의
##액에
질환으로
##보건소
제정된
개념의
제도에
한정판
##는지도
없어야
지부
헬로
했으면
조치했다
##중에는
자금으로
##더를
실천하고
전당대회를
진행중이다
sk
1박2일
가져가
비행기를
##비중을
전해지고
##oney
CEO가
Am
##결과가
조회공시
산업계
강석
##Net
방문에
이의를
혁신적
크리에이터
미미한
이렇듯
##골의
윤병
##용의
거론된다
피부과
10년이
수색을
수백만
육성하는
노약
했다면
##레어
간신
##시장치
##그루
12억
찌라
해석할
연장하는
##인공지능
##닷컴은
아동의
##oad
지분이
##레오
버는
154
미세한
신규사업
오류가
level
사스
MSCI
인터넷과
환경노동
향이
##동아리
대주주인
노조와
이온
사들였다
보낸다
시ㆍ
현명
외제
불균
##장에서는
구한
나섰던
단서를
##TF
홍찬선
##엔에
넘어야
원내대책회의에서
fund
##차량을
##앤드푸어스
증권사들이
크롬
rate
저자가
지급했다
종편
피부의
기술적인
재무부
경찰관이
이룬다
##건수
한국국제
상황이라고
안쪽
웅진코
농도
공산이
##보관
항생제
대부업
걸까
##이치
한국계
그림이
지정하는
유엔의
광주전남
증가하며
실천을
후베이
갔다가
이전부터
생산성을
학교로
총회를
수행해
무기징
정유라
##채널을
후쿠오카
##ator
격려하고
스토리텔
순간을
지도부와
정보제공
궁금해
같지
엇갈렸다
##7억원으로
종속
산불이
남북경
재조명
의원총회를
관방
회담에
입찰을
내려다
쇼핑을
##할수록
##홀로
##전자가
콘솔
설정해
1950년
##NC
끊은
원씩
청사에서
ministry
Pol
##리어트
적절하게
무기로
신은
##혹한
##ases
식품을
논의해
언론들이
조절하는
##약정
다졌다
결혼식을
Des
##해경
시위대가
소식통을
향을
찾아서
필요하지만
접어들면서
금융감독원이
기사에서
40명
조계종
파도가
지어진
크기는
##지수의
##less
인데
동명
집중적인
제출해
##박스를
##시켜주는
철도노조
모델명
위축될
prot
대나무
성숙한
번갈
야당을
나이로
한국관광공사
근로자들이
줄어들면서
##uture
서상
스튜
부인과
역으로
막론
공석
##평생
명지
한국은행의
##ustom
##형제
착용한
코스를
속출하고
어디에서
자본을
가능해졌다
못한다면
##현주
조례안
제15
153
노력했다
국기
것보다는
유입이
단장으로
##ces
산업화
##nov
##기지를
변경할
문명
1974년
우동
조성돼
광주와
오염된
투자자에게
##현악
않았나
이용에
표결에
도보로
수출과
증가했습니다
증강현실
##세제
##승인을
지방자치단체가
178
전망됩니다
방범
공신
압박이
5번
코스모
김형오
예스
러시아에
군에서
생명과학
##까진
접점을
회동에서
개인용
출판기념
시원하게
##티에
너머
발언과
열리지
##갑을
볼거리를
임원이
폭염이
한계에
전라도
나왔고
내부를
위상이
북중
가치에
서울시의회
상위권
숭실
소녀상
질주
철근
##검사가
압박했다
욕구를
짜리
구성과
##way
검사에서
##고발
##빛을
움직임도
신재
제주에서
막힌
특별감찰
고평가
##블록에
##법안을
공정성을
air
스탠딩
##ference
석좌
콜금리
해당되는
168
의존하는
##특정
##거리다
##시계
확정될
##수화
##손으로
##ursday
##orea
말기
장소가
##차고
고정금리
##호남
판단은
더위가
580
마칠
상임위원장
##델피아
반영돼
##달러에서
##혈증
살면서
획일
SK케미칼
감염자가
제5회
기간과
##고객을
##크에
국가들은
순항
장터
대우증권은
기인
아들과
죄질이
응급의료
##파에
임시국회에서
맥스
개개인의
오비
빠져나가
##도시의
대변하는
##펀딩
Thursday
시교육청은
여자가
말입니다
업무추진
9월말
심판을
추첨해
약세가
##yang
살균제
실시했다고
신설된
펼쳐졌다
하나만
요청으로
판결문에서
학교급식
32개
드라이빙
거고
카드는
19세기
일관된
1월까지
거래소는
구조적인
주미
임종석
합의는
남녀노소
금융권의
경제수석
일본에서는
##코르
many
휘둘
상징인
이해관계가
리프트
##논의
발표되는
구해
금액으로
에어부산
##당하는
face
유라시아
만세
시작하면
1400
주말에는
bel
거슬러
계열사를
신일
강씨는
펼쳐지고
카메라에
##nesday
상반된
각인
텐데요
##호에서
개발됐다
육성할
올랐던
##범으로
재무적
외국인들은
보실
단언
TV가
##원들의
perform
##요인
누진
고은
##사각
수치로
무더운
##마비
땅이
##팀으로
##립을
추석연휴
토탈
백악관에서
신문을
보시면
##혁신을
장점은
진두
10명을
YG
선으로
모태
있느냐는
지급되는
##검역
의원님
입맛을
##민간
##화수
활성화하기
조재
##공항공
약사
주선
##단속을
##지수와
단체를
Wednesday
사무국
뉴욕증시가
보이다
어렵습니다
시책
7호선
출시된다
커지자
2년여
침체에
품은
##접수를
제조업의
장윤
##가락을
파출
출석을
##명박
분의
수익은
현실과
매사
법무장관
오피스텔은
NFC
동력이
보듯
뜻의
##너는
강원도는
동의하지
오스
##평창
##단체를
동종목에
추진해온
##법원은
수출규제
##자금으로
수분을
어떻게든
##수지가
밀라노
##공의
당근
배치돼
일교차가
##외국인
##yong
탄원
e편한세상
에쓰
##사장은
BOJ
디스플레이를
카다피
##시험에
##교수가
전문적으로
훈련은
도이치
##니와
##att
협력관계를
##장치가
교사와
##살리기
회장도
가족들에게
국무위원장이
11시부터
범행에
놓지
청량리
애써
진행이
겸직
정의화
2001
##롤라이나
##했어야
운행하는
매장이
방파
재능을
대구가
일동
9월에는
전국경제인연합회
##상조
##버터
이한구
MIT
거느
##품과
왜곡된
한중일
친선
확연히
##러의
대규모로
양사의
##골드
국정을
Wi
글래
손꼽히는
라벨
운동의
유비터스
수사하는
200억
말했고
케네
사회와
##거점
##etwork
구매가
다수가
##경보가
##버스터미널
변경해
전문업체인
오리엔
가진다
얘기할
지옥
도를
red
실현할
##산면
##교체
선고받고
##지도를
##국들이
##마로
고려했다
진영의
상태라고
고품격
##yeong
상대를
북측에
난무
##기회
울산의
형식을
상암동
시세가
미소를
방호
번식
콜로
선호도
##시간대
속보
모양으로
교사들이
142
중앙위원회
기부를
편리하고
##하드
확산이
검토되고
절벽
인파가
컨트롤타워
착취
알면서도
구토
##손실은
심문
앉아서
처지에
분류돼
양도소득세
거액을
##진출을
선택에
돌파할
문자메시지
꼼수
계량
##시네마
노령
조정하고
아래에
손잡
가겠다
자본이
보신
##절차가
극단적
##박물관은
특임
충칭
놀라게
의회는
이통사
농식품부는
정시모집
이루지
스님은
##관계의
##헌법
##시지
지난해에도
참신한
##자라는
배경은
되살아
##6억원으로
현대건설은
##부정
전하며
경진대회
적정성
정신질환
##DM
측면에서도
정비를
##irus
표본오
특별전
깊숙이
##일까요
면책
진행하게
불우이웃
##자들에게는
믿지
대출금
시민들
이봉
서울반도체
듯이
##oot
##철호
학부모들의
여전한
연구하고
##개시
구성되며
예정이던
압박하고
망원
만족할
모였다
전단
184
파악하지
1000억
모로
##∼20
음식료
##시키겠다는
##하셔야겠습니다
순서로
rev
##공단을
논평에서
차단하고
##ption
변호사와
아시아나항공은
당위
언젠가
서부텍사스산
##석기자
##드리고
##아시안게임
##서류를
호주의
##일정을
단체에
주어지는
휴게소
투병
이데
##뷰티
152
이에대해
1976년
##애플
통신에
기관인
생활가전
키스
이전하는
의사소통
숭례
##위원들이
##웨이가
삼성엔지니어링
이뤄지도록
스페인의
원더
방재
한여름
재량
광대역
Center
주지사
상큼
##지사를
##억원대
심혈관
질병을
테라스
##정보가
따지면
##돈이
##계약서
##자로서의
##회장을
포럼은
남성과
무더위가
검찰을
##렉트릭
도민의
견고
지정됐다
내려와
사업장을
관광명
분양가상한
공격으로
##품에
시행되면
오픈했다
조차
브리핑룸에서
##신청은
밀렸다
유지한다
100m
진공
참여자
제안한다
##원인을
##대표를
산하기관
부모를
늦추
생기지
##그림
시사한
Cont
사회안전
재발방지
위기는
북유럽
143
OEM
바를
##영을
탄력적으로
##TM
경동
회복과
거리는
연정
##게임즈는
모토로
제발
평판
15세
육아휴직
임박한
결제를
역사교과서
입주할
##관한
시에서
폭증
후방
결정하게
BU
부상자
절감을
정상의
배워
폭주
꾸민
where
돌파구를
##㎜의
안전점검
5km
창업에
당할
commun
좁히지
평가했습니다
정두
12시간
원인에
여야간
탈환
지원받을
구속했다고
도전에
입장도
예정이었던
터치스크린
##주의로
비를
품질의
최씨의
현대오일
하차
경영학
필라델피아
줄기
황우석
직무를
발전이
크리스탈
##자금은
달리던
##t으로
국민통합
인사청문회를
기온을
광고에
신호가
##ification
18년
부상했다
CJ제일제당
실업급여
지내는
로드을
다루고
순례
조합장
##식당에서
심혈을
일등
concer
Sw
교수팀은
ris
경기북부
공단은
Nov
분양가를
##ony
전년에
##정보의
141
매각하는
흘려
비자금을
설치된다
3위에
골프를
4호선
두자
파리바게뜨
조처를
올라간다
무르
제한된다
pres
더불어민주당이
##사업법
프랑스는
10월에는
열기를
##히면서
생존을
법으로
즈음
대선후보가
소비자들을
##서다
수석대변인은
계약기간은
인연이
기장군
만들어져
거주자
집약
##업체에서
##으라고
##자동차는
소사
##eak
피해자와
콘텐츠의
나선다는
사람이라면
##출동
##대책본부는
You
메리
한미일
세계파이낸스
연구의
당하고
##정착
언어로
##7월
테러가
##아트센터
항공기를
보금자리주택
종자
인사청문회에서
##풍의
각막
경남도는
원리금
대기업들이
클렌징
##무선
대통령으로
자릿수
total
4분기에는
유지보수
대구는
낮아지고
##있을
##익이
문병
피해야
낙폭
##소추
미드
해소와
산단
##보트
##료의
불길이
투입하는
이미지로
책에서
52시간
하단
##엔드
공고를
기후변
##수준이
음료를
시절에
진행하기로
로열티
중국에서는
끌어올리는
책으로
교류가
넥스트
척결
거치며
각오로
넘어가는
입국을
국부
한라산
구현하는
전셋값
이용섭
확보해야
결의했다
싶어요
##했는데도
조감도
튜닝
2001년부터
##스타트
사회공헌활동
분야별로
복지를
현존
흔들림
인정받는
저와
근로자들의
활용하여
현장으로
##율의
느낌의
세르
18만
사우나
제주도와
줄었습니다
그을
유나이
##바스
산업기술
곤두세우고
한목
행정구역
당선자가
바이러스를
##크스바겐
보인다는
##사건의
젊고
명분을
외의
##수집
유가는
개발사
노량진
##시스템과
cent
취업에
1천4
곡을
##싸인
중소기업청
유리하게
틀림
승인했다
##훈기자
평택시
자초
모르겠지만
##더라면
14명
기획됐다
열린우리당은
거래하는
청담동
##바이저
플러그
당장은
##작전을
집권여
##ude
임직원과
##의식
##신호
단지의
평안
피해자들의
TV토론
금지된
IDC
숨지는
개장한
이사회는
부산진구
연구진이
구조개혁
재생에너지
존경하는
전화통화에서
통합에
##사주
천문
길이가
특권
국내외에서
제주특별자치도
시스템도
엔저
지지하고
내재
##먹고
외국에
##공제를
사후관리
##시중
명과
개념으로
어머니를
통과된
불려
필요하지
장비가
원본
김상조
7층
수사할
##등과
일상의
##보급
##성모병원
가닥을
2㎞
보겠습니다
##규제를
##렸으나
알리지
주주총회에서
ref
확산하고
아니겠습니까
금융소비자
EA
놀란
제출하지
Be
former
킨텍스에서
기자재
과거를
남게
채택하고
돌파를
지자체는
##사업도
중랑구
무급
##할수
##단계에
옮겼
사업자를
가능하지만
비은행
DF
콘텐츠와
세심한
일이었다
▶아이
알려지자
1945년
##ason
기다려야
비교한
문장
쌍용차는
##시켰다고
주5일
서지
버이
잡혔다
감원
단일화를
김두관
##arge
147
생활하는
##세대가
투표에서
추진하게
레미콘
초반의
고용이
##인출
5조원
rest
하태경
행정관
두부
##현장의
수족
회복세가
화답했다
마지막까지
한부모
##쓰는
410
보시는
##천의
Chinese
발대식을
##단계를
열정과
이불
고구마
처리하고
보험에
쇼트
ca
고병원
자극하는
분기별
경제학과
전기가스
Go
믿음을
외신들은
임플란트
36개월
##주의료
시설로
부진에
##리테일
달한
퇴직금
##다공
끼쳐
##각이
보고서가
내국
##곳과
개선해야
관중
틀에서
##념이
본인은
##렸기
부리고
노인이
중공업
중국내
떨어지지
직접적
보여야
##평균지수는
목사의
던지는
공교육
##추얼
기념식에서
##기다
조언한다
돌렸다
유럽에
발발
피해에
진단하고
##실장과
평상시
국채를
##법인으로
신지
과반수
##선진화
준하는
7월에는
산업부는
가계의
재판부에
국화
156
호화
식품안전
증대를
함경
##론이다
아직까지는
턴어라운드
##바구니
트레이닝
##준다는
##방사
##배분
역점
공공의
영장실질심사
노선의
돌출
물건이
전망치는
유진투자증권
##연결
책임져야
잇고
70만
그것이다
이용하기
브래
일관되게
1주년
복선전철
##loy
11번가
택한
##마라톤
업체에서
보유세
##견이
부산시가
특조
유럽을
오영
뒤처
책에
자평
맥락에서
스테이크
서는
##메틱
전시회는
착용하고
big
합의된
가옥
였고
요청했습니다
##스프레스
ELW
##노버
강화된다
업체다
현재도
##만달러의
##li
##estival
35개
출시와
참치
이와관련
다쳤습니다
군사분
언급하면서
연회
미생
지킨
와이어
안장
시간의
2천만
법인의
##색과
항로
##징수
##기념관에서
설악산
학생에게
구조에
##맞은
창문
found
Service
만든다는
유혈
간편한
서울행정
트레이딩
##본부장을
있긴
보호와
엄청나게
이재현
피지
고갈
##세계를
육류
다량
울주
조명을
##NO
전장보다
딜러는
방에
섬진
이용자들은
소설을
##프팅
여성들에게
겪으면서
##운동가
에르
말하지
국내는
관세청은
사인을
12명이
유치해
성매매를
회귀
SK㈜
내렸고
중국도
##ｍ로
도자
##실사
받는다고
상생의
##배달
##돌을
투자한다
##비나
대표되는
정책조정
partic
애정을
##근경색
아니어서
이동형
##마을은
국회의사
김영란법
맹비
실렸다
부실한
한화증권
카테고리
##하이머
싸움이
미납
하나은행은
지방자치단체의
노동개혁
오뚜
##님과
답했습니다
##린은
내리기
그러던
사정은
행사한
비구
대테러
무시하는
##기보다
실적호
##imin
##호기자
##액과
스리랑카
의회에서
창구를
##개선에
자동차용
장비와
게재했다
다가오면서
even
주택가
##시공
중개업
매물로
자바
조미
##커니즘
묵묵히
다르지만
제주지역
##모니
##지검은
범죄의
KG
##수호
rul
##miss
##맛이
보합세를
덕수궁
위함
##울을
장착해
번호이동
들어섰다
분양하는
빚었다
업무용
소개하며
차지했으며
13조
##감사를
부정한
한수원
감독과
##여건을
보더라도
유능한
##쿠스
삼청동
입주기업
신뢰와
유수의
침입해
##ann
이루기
텍스트
##황이
1운동
대부분이다
선천
##드려
출동해
와이즈
박사학위를
중순까지
급급
##연방
돋보인다
ext
중국발
시킬
역행
10조원
기업들과
질환이
9명의
##ants
이란은
억지
연달아
주가수익
##특보
고고도미사일방어체계
must
시행으로
반성하고
A4
스며
##나갔다
버닝
90일
총장과
봤습니다
베팅
2000원
도봉구
진입했다
##주시기
##항과
##증명서
등과의
소동이
하이라이트
따르지
민간의
피부로
청탁을
1면
백령도
##연구개발
##방식이
진위
일대일
000원을
실장이
##녀의
학점
제고에
##타의
상위종목
정부세종청사에서
##은행인
홍보하는
5개년
실업자
레고
##영동
경마
##HC
10년물
호조로
퍼부
##대표부
400만원
한국해양
비교를
##실내
의뢰했다
##영장
##레는
선박은
북남
안팎에서는
르노삼
##보호를
University
겸허
기업형
실효성을
커머스
146
텔레비전
제1부
##통한
제작했다
##뉴스TV에서
강아지
▶아이뉴스TV에서
죽고
유지되는
개신
김기현
보이는데
13억
활용된다
인하대
눈은
행정수도
환율을
##되었다고
정리했다
1만9
서울경찰청
##이티브
공격하는
헤쳐
##식사
##igital
충실한
##폭행
불면서
1588
5호선
만들어지는
등장할
1977년
##역할을
##사건에
meas
##두면
모자라
##ership
있었다면
##가능성이
망라
갑작스럽게
다하는
자극을
중소벤처기업부
빼는
151
단어가
상도
호박
식약처는
보컬
기술력이
원외
전격적으로
##8억원으로
쓰게
부의장
인하에
분자
피크
교육환경
길드
경제발전
문화부
시도했다
대지진
산업으로
디플레이션
베트남의
남북은
환자들은
일정기간
구워
##맥을
이승만
##분기점
##족을
대책의
마법
10여년
단계별로
출범했다
고속철도
퇴행성
단체와
지갑을
##분배
출입기자
국제협력
전만
경성
불과했던
통보한
우발
선주
형편이
leader
##받았다고
제안하는
비상대책위원회
화두로
애로사항
위키
국회로
답답한
백악관은
티베트
방지할
콜라겐
8월에는
따라서는
교회를
제6회
mbn
후송
action
재신
전에도
##해방
이라고도
브랜드에
##EP
25도
간담회에
텐트
주거용
##예상
스마트홈
##서기
##연령
IT서비스
91년
GS칼텍스
##거리고
##설은
##미화
불릴
10시까지
렉서스
##텐데
NYMEX
신비
위기관리
단원고
제격
##표시장치
논쟁을
재개할
매출에
막론하고
무허가
2위는
스탠더드앤드푸어스
##앤씨
##인적자원
post
상존
업종별로
정보공유
16대
하강
##우체
종사하는
강압
엄마는
선임했다고
누드
도심에서
정석
##발광다이오드
마무리될
통과할
공사비
혈액순환
##하에서
660
##포조선
손석
##사로부터
예결위
##대학생
투자했다
##장구
사회단체
홍콩에서
납북
양상이
합격한
각국이
제일기획
KOSPI200
수주했다고
중앙정보
SAP
이베이
MRI
깨하고
행보가
added
##정치를
##단한
머물며
간신히
담백
복부
##커버
필요도
온난
알려준다
##몰이
출발을
3명과
회원들의
핵과
교회가
르네상스
사업체
##MCA
과학기술정보통신부
##ively
웃는
샌더스
##지구와
여인
무거
제도와
##워했다
깨이
##되었습니다
일정과
지역도
계도
코치
운영자
모았던
##택배
information
노동자가
##훈식
연휴기간
EU는
##경력
##겠으나
용량을
요가
출사표를
가해자
적용하면
이어지겠습니다
버전을
산업은행은
손님을
낮부터
Le
풀HD
외부로
get
소개된
베테랑
북한으로
##ronics
측도
이상에서
애틀
round
##공장이
채권시장
시상식을
들어갔다고
리치
협의회는
안양시
시장점유율을
##컨소시엄
300여명이
##인삼
교육과학기술부
조선업
초반에
탄생했다
겪게
워터파크
다지고
송도국제
뒤따라
##대희
이르러
##모드
서북
영업에
인연
근절을
고민해야
##선수권대회
익명을
박범
##국들의
공공시설
굴착
이루어져
로비를
hy
막지
엔젤
청년창업
주식시장에
성실하게
대전시는
분담금
분석입니다
적발돼
포스코의
일반적
찬성하는
업무보고를
취합
##uk
근로자를
타지
태어났다
##마리의
조직과
단국대
전개될
대란
적대적
연장선
##림동
##상품에
##도입
##불가
의료진이
500억
동참했다
넣을
##경진
##지방은
질타했다
##ield
주인을
HMC
cre
보안을
날이다
깊어지고
부문으로
정상에
걸리
인력의
##hest
일부에서
박영수
울산지역
상당수는
디폴트
##대한통운
쳤다
악기
출시로
체포됐다
증여세
##상블
로그인
##oss
국민들을
주차장에서
##도시에
힘차게
##키트
하시는
##위원들은
바뀌면서
##듭니다
##메이커
수출액은
확인되면
##uman
받기로
##가슴
스타일로
눈물이
도라
##영역을
이인제
귀속
시베리아
이정미
선수와
구석구
수첩
재가동
##오가
1972년
내셔널
안중근
맞지만
엄선
대선이
MS는
벌였습니다
연계를
##지진
주원
미군기지
##oor
우려한
위험도
##개는
출마할
비롯하여
피했다
촉구하며
최연소
현행법상
##추위
한숨을
올랐지만
체제의
##탑을
포괄적인
정치국
반핑
정리해고
대작
창출하고
뜻에
##파생
##프스
다가구
국정과제
모양이
##인지는
종의
시각장애인
프린팅
##비뉴
변한
인사하고
지극히
트레이드
10억원을
##스러울
내다봤습니다
밝혀져
배치했다
mov
추진하면서
유공자
##밀도
4급
사각지대
주식이
1960년
##소득은
##2의
aT
수비
비판적인
##리코
음성인식
coll
사안은
이어지며
창조적
교육지원
기자■
부분적으로
신고해
넥슨은
폴크스바겐
##형근
앞줄
##aker
환율의
5명은
##내역을
접하고
연세대학교
챙길
등반
경기지역
국제사회가
##마감
잠재력이
##바탕
스스로의
안간
입대
##com
외국환
마취
협약은
마찰을
policy
체감온
157
##플레이어
기지국
불러올
진통
옮기고
데이터가
design
올인
협업해
평했다
정해지지
경영진의
미쳐
카를
보좌관은
##뿌리
사실상의
##본부장이
##대학을
##당국과
어려워질
담겨있다
##포인트로
##체어
보내기
지속된
한국증권
창문을
들어서면
예상되지만
것들
본질을
최규
교수도
하이투자증권
분류된다
커브
3년이
앞섰다
##숨에
기조연설을
배치하고
SR
연금을
##문학상
대비를
최고인민회의
수니파
가동에
##우유
모델과
4번째
##겼던
체감할
구매하면
부동산에
부상한
기존보다
여름을
화장품을
##ided
poss
심상치
##복권
나누기
제각각
체험학습
관광객들의
띄었다
유일하다
Mot
한단계
EF
동참해
참여로
협약식을
전해진
없었을
##했더니
시제품
간혹
##심도
교황은
견딜
부산시장
센터에서
14조
김정숙
공사의
유골
최문순
세무조사를
황태
##스트리
자체로
총리에게
시작합니다
정보통신망
사업가
정회
부원장
수여하는
시중은행의
임대아파트
##추세츠
지적재산권
관련하여
##드릴
신분을
##곳이다
운용사
미야
##짓는
2배로
그러므로
한국투자증권은
말하자면
병영
나름의
앨런
##휴가를
홍익대
##거리로
개선의
한가운데
행운의
4종
그레
지방분권
귀한
질병관리본부는
##개와
분야에서도
헤아
풍랑
##red
산둥
3㎞
Minister
경위와
느슨
내놨습니다
전환하고
##9000억원
earlier
공로로
불면
##하더니
김이
전라남
새벽까지
통제를
레버리지
##19년
수도권은
대다수가
팬츠
변경하는
유도해
##극복
실체를
##설계를
무시할
활동가
7년간
샌드위치
2000년부터
금융위기가
##삼성전자
홍보와
##비어
대표해
위메이드
UC
deal
Kakao
업그레이드를
여지를
김포시
중소기업들이
금액에
##오페라
사업장에
강조할
시청률
음악이
3000원
되느냐
##선물은
특성화고
주식시장은
원어민
친환경차
수출도
인사에서
캐릭터가
EU의
싱가포르에서
에너지가
장년
사활
##행에
29개
일당이
Is
##다나
미성년자
일진
추정됐다
풀릴
기하
상반기에는
##종양
박씨가
정찬
정의당은
국정기획
179
Award
초청으로
말이죠
천호
낸드플래시
3m
자동차에
믿어
마루
징벌
정부나
##세율
급증하면서
4강
부산시민
Int
티켓을
일상에서
특약
##소장은
활동했다
구조의
선후
정홍원
지원사업을
Act
##자원봉사
식음료
##함의
장동
표결을
금융회사의
협찬
기록적인
##혁신도시
##아이템
탈락한
영광을
디지
fil
묵인
부산지방
기아차가
##사망
특성이
집중되는
매니저는
기쁘게
흔들리는
현실로
노인의
##자위
업체들도
이어가며
고려하는
서울서부
다우지수는
관리의
선박이
제한할
여자는
기저귀
달서구
조성한다
김치를
풀어나
해역
주목했다
싶어서
주위를
##스트림
유권자의
규제와
세출
수익률에
주제발표
재고가
##슬을
보증을
##매일
교통사고로
##잖아
단숨에
조정해
교회의
import
밝히기
아이언
오상
##ature
으로부터
##파견
외쳤다
가입자의
동원한
##1억원으로
##말에
국회의원의
정해져
영향도
태평로
##배추
부각될
포켓몬
일사
테니
##실시
연동형
지방기사
구룡
닭고기
교육부와
놓는
##우에
승인이
감소했지만
공동주
법치
바뀌어
##봐도
상장지수펀드
초에는
최저임금을
근데
임명을
영화배우
자를
시나리오를
국면에서
조류인플루엔자
심화될
재선거
롯데캐슬
조직으로
##구역으로
불출마를
##자립
많아지고
밑돌았다
##경식
카탈
밑거
근거해
Friday
소프트뱅크
##초기
소통할
신청하는
011
팽팽한
##청래
##했으니
진단과
HDC
프로필
##연대가
선도할
비교했을
비키
무역적
##객들의
제막
국민의당이
##산으로
규정은
직계
충고
재외동포
3D프린
city
완성된
##시켰다는
어제와
취소하고
의존하고
있듯이
영역이
걸맞게
##원도
일가족
##유형
가운데서도
사무국장은
검찰청
필리버스터
능력에
나라로
##복지가
데이터센터
##과제로
심심
평창군
아이러
안정성이
어이
##균이
한국거래소에
완구
올해를
네가
B형
형광
팽배
효과적
11명이
주민에게
진료비
경찰청장
대수
좌초
음식은
SK브로드밴
##열과
불법적인
교통이
빈소를
제시하며
승객들이
제출하는
환자들에게
used
도덕성
하나대투증권
자신감이
compet
정보통신부
관리자
방청
훈련에
남이
방지하고
장지
동승
업로드
##생과
##2가구
현실적
세액공제
피고인의
재적
치어
national
전체로
진정성을
Val
이덕
연말을
금융자산
총사업비
수석비서관
이상에
##조차도
불확실성을
브랜
전해지면서
##증시의
500만원을
##이라서
접촉이
남는다
##희경
투입될
센서를
승리로
##알코올
정치권과
158
핵심으로
충격으로
원내대표도
전파를
저변
기획전
##자료로
온전한
1965년
아기를
##해왔습니다
지중해
않아요
주재하고
활용되고
열연
싶어하는
##동호
이언
##슈머
##해설
완판
편의성
##보인다
추이
현대홈쇼핑
브라우저
기억에
겸비한
image
발견할
믿음
일리
꺼리는
어치를
텔레그램
항공모
살다
##경매
DGB
무이
정의를
파탄
9시까지
##문제연구소
스트레스가
매경
티볼
##떨어진
여사의
##대책이
고범준
대변인도
regul
쟁의
bet
##함대
만남의
공모해
##ished
접근해
합동참모
1천3
보였으며
이야기하고
앞에는
예천
##곡히
due
##하는가
밟을
발사에
7명을
##80원
출연한다
굳게
##류로
희망과
##조세
##진흥원은
운송장비
수석의
계속되면서
축복
공략할
구형했다
##ote
열었다고
##운전을
생명이
QM
##PD
확진자의
##00원을
라이벌
학내
##활성화를
##농축
요코
##준의
녹록
real
##휴게소
Top
##중이던
매각에
대연
경북도는
##건설과
##파악
피가
출토
그룹을
파이낸
누비
전자금융
제안이
##질은
엘리엇
총선이
##온천
11억
순천향
LH는
##파라
문제들을
출정
결혼한
안테나
because
경쟁적으로
ra
기업이나
내일도
LG는
반발로
##경쟁이
마저
70년대
##간호
동탄2
액면가
처리했다
고산
##수목
확대한다는
##했나
remain
약식
타기
기업은행은
보유하게
마련하기로
평양을
##에이치
##만하다
##스코에서
인권위는
표한다
스타크래프트
##제도에
##시켰습니다
1천2
##성장의
적절하지
타이거
##210
신선식품
지에
##uation
177
면도
소리에
뉴욕증권
이채
유연하게
취소했다
영통
교사를
서원
디지털카메라
##혜의
##보건의
골다공
접대
워커힐
백화점과
결제가
프랑스와
강연에서
sing
꿈에
즐기기
##체육관
산업자원부
대표적으로
일러스트
조치도
김병준
화면이
##BN
##그리드
미래통합
10주년을
시장인
내부에서는
##년도
와이드
드러나지
의미와
메이플
VC
참석자
방증
##교직원
10년을
프리미엄을
발전하는
원세훈
박주선
##살상
변속
##인턴
내린다
마블
확장해
라운지
행정명령
투자매
부총리가
견해가
어김없이
##들끼리
경우다
Je
고인은
시정명령
중심지로
구정
게시판에는
내세우며
각계각
검단
안구
미묘한
근로복지
끌어올렸다
보장성
선생님이
##확장
five
통과가
##인스
cour
바자
포인트나
생활비
대회에는
급물
저지를
맥주를
기념으로
극적으로
남도
휴직
학습을
다르기
도입된다
누리는
국가경제
내정된
세금으로
스틱
##이사는
카스
CNN은
##공산
찾게
스들
##te
감염자
##집행방해
Me
##타로
움직이지
희박
한진칼
영동고속도로
스파크
있을지는
폐광
test
향년
##방침
##종목으로
전차
##되었
##공원으로
채택된
스스로가
줄었다고
부산시와
정상회의에서
맡기는
페이지를
넓고
살피고
니즈를
##공조
기간에는
기초과학
구현한
굳은
8시부터
##배기
경비를
tour
##물리
바라보며
능가
추워
섬세한
공간의
##초반
이내에서
장점으로
연매출
스케이트
신나는
개미
금수
클리닉
이기는
30개월
2만여
완화에
##스콘
수업이
정리하는
폐수
회복하는
가까스로
##ences
은하
테러리스트
카리스
차례나
##보리
영업손실
돌입할
##절약
AIG
예측이
##공단에
가능하기
광장에
무장한
##지부는
직전인
시크릿
개선했다
국민연금이
감염을
구가
SK에너지
여기고
함량이
제공함으로써
용어를
640
형사소송
커서
차단할
다니던
인사들과
대비하는
서진
##11월
반응도
백업
##인터뷰
수량
내려야
생산량은
보수의
중성
che
창업지원
모집을
인천지역
원료를
의사는
##표지
약해
사람들로
FT는
2016년까지
##러지
##3차
##저감
본사의
해달라고
하자고
소정의
여동생
##임원
비서실장이
동선을
극단주의
홍보대사
야생동물
##회사에서
프로토
시민참여
##프리미엄
맞습니다
CJ그룹
모호한
측정하는
수입에
PDA
영화에
LCC
정박
기부한
취득했다고
돌아간
##주파
거지
##rit
한국도로공사
취해야
##수수료를
수혈
월급을
입증할
하라는
##강과
##기동
1만3천
간절히
자산운용사
아내는
테이프
이것도
하루하루
부근에
Feb
관리비
천만
모나
이주민
##재개발
체제에
##려다
도장
동영상이
##전화가
달았다
수렴하고
콩쿠르
라이언
재료가
인식하는
신격
개막한
176
보도와
제7회
심사가
##평가원
##테크놀로
한파가
예루
##행사는
aut
어나
뜻은
완성했다
단호하게
##∼2
친정
임원은
##저축은행은
참가비는
돼요
차근
평촌
##과천
정교한
침해하는
더러
쇼케이스
안종범
마오
PI
포근
##인간
비염
##총회에
정부서울청사
가면서
way
##화하여
서울시립
충돌을
##감염증
급등에
안토
당연하다
승리할
5점
진로를
##칩니다
검경
##가입자
전날과
이익에
뚜하게
태도는
주시하고
1만2000
나우뉴스
과외
이상현
사망에
택시기사
##봉사를
격렬한
결정되는
거품이
단행한
주식과
원광
원천적으로
번이나
대열에
의원들에게
황병
시각이다
금성
##보고를
결별
할애
체결된
기록은
2G
연준은
기권
등이며
##기타
DD
온누리
개발제한
밤샘
서울광장에서
전자부품
DL
570
인도를
자라는
팽창
보험을
먹거리를
162
생각과
조윤선
##서비스와
##안이다
전할
▲이
좀비
통신비
##협상에
##카쿠
비타민C
범람
##만이다
생동
##혔던
##에게만
일탈
##투자에
추경예산
고향을
밟아
구도가
의제로
지구를
판을
김종훈
총체
B씨를
상장주식
삼화
EB
4단계
##회도
엔진이
이영환
방지하는
챙기고
도달할
##스터디
최근들어
국민행복
기대감도
포브
지역사회의
전략적인
510
정상회담에
박미
유리창
##길래
붙였다
약탈
아냐
##접근
주민등록번호
실시됐다
대고
부동산시장
1천여
프로세스를
금상
해치
사회적인
차관을
166
최단
수요와
##30일까지
공동개발
민간기업
##공동선언
##컨벤션센터에서
이재정
금액이다
정당을
금지한
##탐방
완제품
당국과
검색해
모토로라
보상이
사용하던
교섭을
##혜진
균일
논란도
AP통신
추세는
9급
보살
원피스
꼽고
내세우는
##행선
사이트인
수준이라고
완화하고
매도우위를
이마저도
talks
##조건이
능동적으로
담당하게
논현동
사가
농협은
사업장에서
지표로
잉여
##법규
##크레
전체회의에
않았다면
전시한다
장악하고
announc
##S는
##티비
안타까움을
##하느냐에
레시피
단결
교환할
유권자들이
노하우와
매장은
시인은
##MR
제재에
증권사들은
일상적인
직관
접근성을
반려동
정일
탈당을
김재원
시련
##치도
사진공동취재단
실크로
안재
잘못이
참고용으로
지역구인
##체크
촉진을
##함도
400억원
분출
지켰
저질렀다
나카
##강릉
100명을
##교류를
previous
휴무
인천에서
##복지관
인간과
급감한
투명하고
펜실
1절
환자들을
두배
박한
반가운
##㎡는
이유로는
소재가
##체제에
##러시아
SK하이닉스는
이지만
##가량을
시그널
Ab
수요예측
인사들은
5거래일
귀빈
지내고
##속도를
잉글랜드
부처와
자랑스러운
압박에
테이블에
컬러를
##라니
##사과
##탐구
##ather
최원
크레디
백석
지역에서도
호프
예상되기
##아와
감내
휴면
대표단이
참가자들의
대기업은
김성수
규명을
##락의
##곡이
카카오는
신설하는
매출액을
함유돼
커리럼
오가
##road
종양
##피트
국적을
가두
서울고등
2024년
##인성
##후원
30분쯤
##강호
근무하던
국장급
규탄하는
공간은
마중
도화
시작했으며
화려하게
니코
통상교섭
걸프
영상과
